node {
  name: "inputs"
  op: "Placeholder"
  attr {
    key: "dtype"
    value {
      type: DT_FLOAT
    }
  }
  attr {
    key: "shape"
    value {
      shape {
        dim {
          size: 1
        }
        dim {
          size: 28
        }
        dim {
          size: 1
        }
        dim {
          size: 96
        }
      }
    }
  }
}
node {
  name: "reshape_to_rnn/shape"
  op: "Const"
  attr {
    key: "dtype"
    value {
      type: DT_INT32
    }
  }
  attr {
    key: "value"
    value {
      tensor {
        dtype: DT_INT32
        tensor_shape {
          dim {
            size: 3
          }
        }
        tensor_content: "\377\377\377\377\034\000\000\000`\000\000\000"
      }
    }
  }
}
node {
  name: "reshape_to_rnn"
  op: "Reshape"
  input: "inputs"
  input: "reshape_to_rnn/shape"
  attr {
    key: "T"
    value {
      type: DT_FLOAT
    }
  }
  attr {
    key: "Tshape"
    value {
      type: DT_INT32
    }
  }
}
node {
  name: "rnn/stack_bidirectional_rnn/cell_0/bidirectional_rnn/fw/fw/Rank"
  op: "Const"
  attr {
    key: "dtype"
    value {
      type: DT_INT32
    }
  }
  attr {
    key: "value"
    value {
      tensor {
        dtype: DT_INT32
        tensor_shape {
        }
        int_val: 3
      }
    }
  }
}
node {
  name: "rnn/stack_bidirectional_rnn/cell_0/bidirectional_rnn/fw/fw/range/start"
  op: "Const"
  attr {
    key: "dtype"
    value {
      type: DT_INT32
    }
  }
  attr {
    key: "value"
    value {
      tensor {
        dtype: DT_INT32
        tensor_shape {
        }
        int_val: 2
      }
    }
  }
}
node {
  name: "rnn/stack_bidirectional_rnn/cell_0/bidirectional_rnn/fw/fw/range/delta"
  op: "Const"
  attr {
    key: "dtype"
    value {
      type: DT_INT32
    }
  }
  attr {
    key: "value"
    value {
      tensor {
        dtype: DT_INT32
        tensor_shape {
        }
        int_val: 1
      }
    }
  }
}
node {
  name: "rnn/stack_bidirectional_rnn/cell_0/bidirectional_rnn/fw/fw/range"
  op: "Range"
  input: "rnn/stack_bidirectional_rnn/cell_0/bidirectional_rnn/fw/fw/range/start"
  input: "rnn/stack_bidirectional_rnn/cell_0/bidirectional_rnn/fw/fw/Rank"
  input: "rnn/stack_bidirectional_rnn/cell_0/bidirectional_rnn/fw/fw/range/delta"
  attr {
    key: "Tidx"
    value {
      type: DT_INT32
    }
  }
}
node {
  name: "rnn/stack_bidirectional_rnn/cell_0/bidirectional_rnn/fw/fw/concat/values_0"
  op: "Const"
  attr {
    key: "dtype"
    value {
      type: DT_INT32
    }
  }
  attr {
    key: "value"
    value {
      tensor {
        dtype: DT_INT32
        tensor_shape {
          dim {
            size: 2
          }
        }
        tensor_content: "\001\000\000\000\000\000\000\000"
      }
    }
  }
}
node {
  name: "rnn/stack_bidirectional_rnn/cell_0/bidirectional_rnn/fw/fw/concat/axis"
  op: "Const"
  attr {
    key: "dtype"
    value {
      type: DT_INT32
    }
  }
  attr {
    key: "value"
    value {
      tensor {
        dtype: DT_INT32
        tensor_shape {
        }
        int_val: 0
      }
    }
  }
}
node {
  name: "rnn/stack_bidirectional_rnn/cell_0/bidirectional_rnn/fw/fw/concat"
  op: "ConcatV2"
  input: "rnn/stack_bidirectional_rnn/cell_0/bidirectional_rnn/fw/fw/concat/values_0"
  input: "rnn/stack_bidirectional_rnn/cell_0/bidirectional_rnn/fw/fw/range"
  input: "rnn/stack_bidirectional_rnn/cell_0/bidirectional_rnn/fw/fw/concat/axis"
  attr {
    key: "N"
    value {
      i: 2
    }
  }
  attr {
    key: "T"
    value {
      type: DT_INT32
    }
  }
  attr {
    key: "Tidx"
    value {
      type: DT_INT32
    }
  }
}
node {
  name: "rnn/stack_bidirectional_rnn/cell_0/bidirectional_rnn/fw/fw/transpose"
  op: "Transpose"
  input: "reshape_to_rnn"
  input: "rnn/stack_bidirectional_rnn/cell_0/bidirectional_rnn/fw/fw/concat"
  attr {
    key: "T"
    value {
      type: DT_FLOAT
    }
  }
  attr {
    key: "Tperm"
    value {
      type: DT_INT32
    }
  }
}
node {
  name: "rnn/stack_bidirectional_rnn/cell_0/bidirectional_rnn/fw/fw/Shape"
  op: "Shape"
  input: "rnn/stack_bidirectional_rnn/cell_0/bidirectional_rnn/fw/fw/transpose"
  attr {
    key: "T"
    value {
      type: DT_FLOAT
    }
  }
  attr {
    key: "out_type"
    value {
      type: DT_INT32
    }
  }
}
node {
  name: "rnn/stack_bidirectional_rnn/cell_0/bidirectional_rnn/fw/fw/strided_slice/stack"
  op: "Const"
  attr {
    key: "dtype"
    value {
      type: DT_INT32
    }
  }
  attr {
    key: "value"
    value {
      tensor {
        dtype: DT_INT32
        tensor_shape {
          dim {
            size: 1
          }
        }
        int_val: 1
      }
    }
  }
}
node {
  name: "rnn/stack_bidirectional_rnn/cell_0/bidirectional_rnn/fw/fw/strided_slice/stack_1"
  op: "Const"
  attr {
    key: "dtype"
    value {
      type: DT_INT32
    }
  }
  attr {
    key: "value"
    value {
      tensor {
        dtype: DT_INT32
        tensor_shape {
          dim {
            size: 1
          }
        }
        int_val: 2
      }
    }
  }
}
node {
  name: "rnn/stack_bidirectional_rnn/cell_0/bidirectional_rnn/fw/fw/strided_slice/stack_2"
  op: "Const"
  attr {
    key: "dtype"
    value {
      type: DT_INT32
    }
  }
  attr {
    key: "value"
    value {
      tensor {
        dtype: DT_INT32
        tensor_shape {
          dim {
            size: 1
          }
        }
        int_val: 1
      }
    }
  }
}
node {
  name: "rnn/stack_bidirectional_rnn/cell_0/bidirectional_rnn/fw/fw/strided_slice"
  op: "StridedSlice"
  input: "rnn/stack_bidirectional_rnn/cell_0/bidirectional_rnn/fw/fw/Shape"
  input: "rnn/stack_bidirectional_rnn/cell_0/bidirectional_rnn/fw/fw/strided_slice/stack"
  input: "rnn/stack_bidirectional_rnn/cell_0/bidirectional_rnn/fw/fw/strided_slice/stack_1"
  input: "rnn/stack_bidirectional_rnn/cell_0/bidirectional_rnn/fw/fw/strided_slice/stack_2"
  attr {
    key: "Index"
    value {
      type: DT_INT32
    }
  }
  attr {
    key: "T"
    value {
      type: DT_INT32
    }
  }
  attr {
    key: "begin_mask"
    value {
      i: 0
    }
  }
  attr {
    key: "ellipsis_mask"
    value {
      i: 0
    }
  }
  attr {
    key: "end_mask"
    value {
      i: 0
    }
  }
  attr {
    key: "new_axis_mask"
    value {
      i: 0
    }
  }
  attr {
    key: "shrink_axis_mask"
    value {
      i: 1
    }
  }
}
node {
  name: "rnn/stack_bidirectional_rnn/cell_0/bidirectional_rnn/fw/fw/GRUCellZeroState/ExpandDims/dim"
  op: "Const"
  attr {
    key: "dtype"
    value {
      type: DT_INT32
    }
  }
  attr {
    key: "value"
    value {
      tensor {
        dtype: DT_INT32
        tensor_shape {
        }
        int_val: 0
      }
    }
  }
}
node {
  name: "rnn/stack_bidirectional_rnn/cell_0/bidirectional_rnn/fw/fw/GRUCellZeroState/ExpandDims"
  op: "ExpandDims"
  input: "rnn/stack_bidirectional_rnn/cell_0/bidirectional_rnn/fw/fw/strided_slice"
  input: "rnn/stack_bidirectional_rnn/cell_0/bidirectional_rnn/fw/fw/GRUCellZeroState/ExpandDims/dim"
  attr {
    key: "T"
    value {
      type: DT_INT32
    }
  }
  attr {
    key: "Tdim"
    value {
      type: DT_INT32
    }
  }
}
node {
  name: "rnn/stack_bidirectional_rnn/cell_0/bidirectional_rnn/fw/fw/GRUCellZeroState/Const"
  op: "Const"
  attr {
    key: "dtype"
    value {
      type: DT_INT32
    }
  }
  attr {
    key: "value"
    value {
      tensor {
        dtype: DT_INT32
        tensor_shape {
          dim {
            size: 1
          }
        }
        int_val: 96
      }
    }
  }
}
node {
  name: "rnn/stack_bidirectional_rnn/cell_0/bidirectional_rnn/fw/fw/GRUCellZeroState/concat/axis"
  op: "Const"
  attr {
    key: "dtype"
    value {
      type: DT_INT32
    }
  }
  attr {
    key: "value"
    value {
      tensor {
        dtype: DT_INT32
        tensor_shape {
        }
        int_val: 0
      }
    }
  }
}
node {
  name: "rnn/stack_bidirectional_rnn/cell_0/bidirectional_rnn/fw/fw/GRUCellZeroState/concat"
  op: "ConcatV2"
  input: "rnn/stack_bidirectional_rnn/cell_0/bidirectional_rnn/fw/fw/GRUCellZeroState/ExpandDims"
  input: "rnn/stack_bidirectional_rnn/cell_0/bidirectional_rnn/fw/fw/GRUCellZeroState/Const"
  input: "rnn/stack_bidirectional_rnn/cell_0/bidirectional_rnn/fw/fw/GRUCellZeroState/concat/axis"
  attr {
    key: "N"
    value {
      i: 2
    }
  }
  attr {
    key: "T"
    value {
      type: DT_INT32
    }
  }
  attr {
    key: "Tidx"
    value {
      type: DT_INT32
    }
  }
}
node {
  name: "rnn/stack_bidirectional_rnn/cell_0/bidirectional_rnn/fw/fw/GRUCellZeroState/zeros/Const"
  op: "Const"
  attr {
    key: "dtype"
    value {
      type: DT_FLOAT
    }
  }
  attr {
    key: "value"
    value {
      tensor {
        dtype: DT_FLOAT
        tensor_shape {
        }
        float_val: 0.0
      }
    }
  }
}
node {
  name: "rnn/stack_bidirectional_rnn/cell_0/bidirectional_rnn/fw/fw/GRUCellZeroState/zeros"
  op: "Fill"
  input: "rnn/stack_bidirectional_rnn/cell_0/bidirectional_rnn/fw/fw/GRUCellZeroState/concat"
  input: "rnn/stack_bidirectional_rnn/cell_0/bidirectional_rnn/fw/fw/GRUCellZeroState/zeros/Const"
  attr {
    key: "T"
    value {
      type: DT_FLOAT
    }
  }
  attr {
    key: "index_type"
    value {
      type: DT_INT32
    }
  }
}
node {
  name: "rnn/stack_bidirectional_rnn/cell_0/bidirectional_rnn/fw/fw/Shape_1"
  op: "Shape"
  input: "rnn/stack_bidirectional_rnn/cell_0/bidirectional_rnn/fw/fw/transpose"
  attr {
    key: "T"
    value {
      type: DT_FLOAT
    }
  }
  attr {
    key: "out_type"
    value {
      type: DT_INT32
    }
  }
}
node {
  name: "rnn/stack_bidirectional_rnn/cell_0/bidirectional_rnn/fw/fw/strided_slice_1/stack"
  op: "Const"
  attr {
    key: "dtype"
    value {
      type: DT_INT32
    }
  }
  attr {
    key: "value"
    value {
      tensor {
        dtype: DT_INT32
        tensor_shape {
          dim {
            size: 1
          }
        }
        int_val: 0
      }
    }
  }
}
node {
  name: "rnn/stack_bidirectional_rnn/cell_0/bidirectional_rnn/fw/fw/strided_slice_1/stack_1"
  op: "Const"
  attr {
    key: "dtype"
    value {
      type: DT_INT32
    }
  }
  attr {
    key: "value"
    value {
      tensor {
        dtype: DT_INT32
        tensor_shape {
          dim {
            size: 1
          }
        }
        int_val: 1
      }
    }
  }
}
node {
  name: "rnn/stack_bidirectional_rnn/cell_0/bidirectional_rnn/fw/fw/strided_slice_1/stack_2"
  op: "Const"
  attr {
    key: "dtype"
    value {
      type: DT_INT32
    }
  }
  attr {
    key: "value"
    value {
      tensor {
        dtype: DT_INT32
        tensor_shape {
          dim {
            size: 1
          }
        }
        int_val: 1
      }
    }
  }
}
node {
  name: "rnn/stack_bidirectional_rnn/cell_0/bidirectional_rnn/fw/fw/strided_slice_1"
  op: "StridedSlice"
  input: "rnn/stack_bidirectional_rnn/cell_0/bidirectional_rnn/fw/fw/Shape_1"
  input: "rnn/stack_bidirectional_rnn/cell_0/bidirectional_rnn/fw/fw/strided_slice_1/stack"
  input: "rnn/stack_bidirectional_rnn/cell_0/bidirectional_rnn/fw/fw/strided_slice_1/stack_1"
  input: "rnn/stack_bidirectional_rnn/cell_0/bidirectional_rnn/fw/fw/strided_slice_1/stack_2"
  attr {
    key: "Index"
    value {
      type: DT_INT32
    }
  }
  attr {
    key: "T"
    value {
      type: DT_INT32
    }
  }
  attr {
    key: "begin_mask"
    value {
      i: 0
    }
  }
  attr {
    key: "ellipsis_mask"
    value {
      i: 0
    }
  }
  attr {
    key: "end_mask"
    value {
      i: 0
    }
  }
  attr {
    key: "new_axis_mask"
    value {
      i: 0
    }
  }
  attr {
    key: "shrink_axis_mask"
    value {
      i: 1
    }
  }
}
node {
  name: "rnn/stack_bidirectional_rnn/cell_0/bidirectional_rnn/fw/fw/time"
  op: "Const"
  attr {
    key: "dtype"
    value {
      type: DT_INT32
    }
  }
  attr {
    key: "value"
    value {
      tensor {
        dtype: DT_INT32
        tensor_shape {
        }
        int_val: 0
      }
    }
  }
}
node {
  name: "rnn/stack_bidirectional_rnn/cell_0/bidirectional_rnn/fw/fw/TensorArray"
  op: "TensorArrayV3"
  input: "rnn/stack_bidirectional_rnn/cell_0/bidirectional_rnn/fw/fw/strided_slice_1"
  attr {
    key: "clear_after_read"
    value {
      b: true
    }
  }
  attr {
    key: "dtype"
    value {
      type: DT_FLOAT
    }
  }
  attr {
    key: "dynamic_size"
    value {
      b: false
    }
  }
  attr {
    key: "element_shape"
    value {
      shape {
        dim {
          size: -1
        }
        dim {
          size: 96
        }
      }
    }
  }
  attr {
    key: "identical_element_shapes"
    value {
      b: true
    }
  }
  attr {
    key: "tensor_array_name"
    value {
      s: "rnn/stack_bidirectional_rnn/cell_0/bidirectional_rnn/fw/fw/dynamic_rnn/output_0"
    }
  }
}
node {
  name: "rnn/stack_bidirectional_rnn/cell_0/bidirectional_rnn/fw/fw/TensorArray_1"
  op: "TensorArrayV3"
  input: "rnn/stack_bidirectional_rnn/cell_0/bidirectional_rnn/fw/fw/strided_slice_1"
  attr {
    key: "clear_after_read"
    value {
      b: true
    }
  }
  attr {
    key: "dtype"
    value {
      type: DT_FLOAT
    }
  }
  attr {
    key: "dynamic_size"
    value {
      b: false
    }
  }
  attr {
    key: "element_shape"
    value {
      shape {
        dim {
          size: -1
        }
        dim {
          size: 96
        }
      }
    }
  }
  attr {
    key: "identical_element_shapes"
    value {
      b: true
    }
  }
  attr {
    key: "tensor_array_name"
    value {
      s: "rnn/stack_bidirectional_rnn/cell_0/bidirectional_rnn/fw/fw/dynamic_rnn/input_0"
    }
  }
}
node {
  name: "rnn/stack_bidirectional_rnn/cell_0/bidirectional_rnn/fw/fw/TensorArrayUnstack/Shape"
  op: "Shape"
  input: "rnn/stack_bidirectional_rnn/cell_0/bidirectional_rnn/fw/fw/transpose"
  attr {
    key: "T"
    value {
      type: DT_FLOAT
    }
  }
  attr {
    key: "out_type"
    value {
      type: DT_INT32
    }
  }
}
node {
  name: "rnn/stack_bidirectional_rnn/cell_0/bidirectional_rnn/fw/fw/TensorArrayUnstack/strided_slice/stack"
  op: "Const"
  attr {
    key: "dtype"
    value {
      type: DT_INT32
    }
  }
  attr {
    key: "value"
    value {
      tensor {
        dtype: DT_INT32
        tensor_shape {
          dim {
            size: 1
          }
        }
        int_val: 0
      }
    }
  }
}
node {
  name: "rnn/stack_bidirectional_rnn/cell_0/bidirectional_rnn/fw/fw/TensorArrayUnstack/strided_slice/stack_1"
  op: "Const"
  attr {
    key: "dtype"
    value {
      type: DT_INT32
    }
  }
  attr {
    key: "value"
    value {
      tensor {
        dtype: DT_INT32
        tensor_shape {
          dim {
            size: 1
          }
        }
        int_val: 1
      }
    }
  }
}
node {
  name: "rnn/stack_bidirectional_rnn/cell_0/bidirectional_rnn/fw/fw/TensorArrayUnstack/strided_slice/stack_2"
  op: "Const"
  attr {
    key: "dtype"
    value {
      type: DT_INT32
    }
  }
  attr {
    key: "value"
    value {
      tensor {
        dtype: DT_INT32
        tensor_shape {
          dim {
            size: 1
          }
        }
        int_val: 1
      }
    }
  }
}
node {
  name: "rnn/stack_bidirectional_rnn/cell_0/bidirectional_rnn/fw/fw/TensorArrayUnstack/strided_slice"
  op: "StridedSlice"
  input: "rnn/stack_bidirectional_rnn/cell_0/bidirectional_rnn/fw/fw/TensorArrayUnstack/Shape"
  input: "rnn/stack_bidirectional_rnn/cell_0/bidirectional_rnn/fw/fw/TensorArrayUnstack/strided_slice/stack"
  input: "rnn/stack_bidirectional_rnn/cell_0/bidirectional_rnn/fw/fw/TensorArrayUnstack/strided_slice/stack_1"
  input: "rnn/stack_bidirectional_rnn/cell_0/bidirectional_rnn/fw/fw/TensorArrayUnstack/strided_slice/stack_2"
  attr {
    key: "Index"
    value {
      type: DT_INT32
    }
  }
  attr {
    key: "T"
    value {
      type: DT_INT32
    }
  }
  attr {
    key: "begin_mask"
    value {
      i: 0
    }
  }
  attr {
    key: "ellipsis_mask"
    value {
      i: 0
    }
  }
  attr {
    key: "end_mask"
    value {
      i: 0
    }
  }
  attr {
    key: "new_axis_mask"
    value {
      i: 0
    }
  }
  attr {
    key: "shrink_axis_mask"
    value {
      i: 1
    }
  }
}
node {
  name: "rnn/stack_bidirectional_rnn/cell_0/bidirectional_rnn/fw/fw/TensorArrayUnstack/range/start"
  op: "Const"
  attr {
    key: "dtype"
    value {
      type: DT_INT32
    }
  }
  attr {
    key: "value"
    value {
      tensor {
        dtype: DT_INT32
        tensor_shape {
        }
        int_val: 0
      }
    }
  }
}
node {
  name: "rnn/stack_bidirectional_rnn/cell_0/bidirectional_rnn/fw/fw/TensorArrayUnstack/range/delta"
  op: "Const"
  attr {
    key: "dtype"
    value {
      type: DT_INT32
    }
  }
  attr {
    key: "value"
    value {
      tensor {
        dtype: DT_INT32
        tensor_shape {
        }
        int_val: 1
      }
    }
  }
}
node {
  name: "rnn/stack_bidirectional_rnn/cell_0/bidirectional_rnn/fw/fw/TensorArrayUnstack/range"
  op: "Range"
  input: "rnn/stack_bidirectional_rnn/cell_0/bidirectional_rnn/fw/fw/TensorArrayUnstack/range/start"
  input: "rnn/stack_bidirectional_rnn/cell_0/bidirectional_rnn/fw/fw/TensorArrayUnstack/strided_slice"
  input: "rnn/stack_bidirectional_rnn/cell_0/bidirectional_rnn/fw/fw/TensorArrayUnstack/range/delta"
  attr {
    key: "Tidx"
    value {
      type: DT_INT32
    }
  }
}
node {
  name: "rnn/stack_bidirectional_rnn/cell_0/bidirectional_rnn/fw/fw/TensorArrayUnstack/TensorArrayScatter/TensorArrayScatterV3"
  op: "TensorArrayScatterV3"
  input: "rnn/stack_bidirectional_rnn/cell_0/bidirectional_rnn/fw/fw/TensorArray_1"
  input: "rnn/stack_bidirectional_rnn/cell_0/bidirectional_rnn/fw/fw/TensorArrayUnstack/range"
  input: "rnn/stack_bidirectional_rnn/cell_0/bidirectional_rnn/fw/fw/transpose"
  input: "rnn/stack_bidirectional_rnn/cell_0/bidirectional_rnn/fw/fw/TensorArray_1:1"
  attr {
    key: "T"
    value {
      type: DT_FLOAT
    }
  }
  attr {
    key: "_class"
    value {
      list {
        s: "loc:@rnn/stack_bidirectional_rnn/cell_0/bidirectional_rnn/fw/fw/transpose"
      }
    }
  }
}
node {
  name: "rnn/stack_bidirectional_rnn/cell_0/bidirectional_rnn/fw/fw/Maximum/x"
  op: "Const"
  attr {
    key: "dtype"
    value {
      type: DT_INT32
    }
  }
  attr {
    key: "value"
    value {
      tensor {
        dtype: DT_INT32
        tensor_shape {
        }
        int_val: 1
      }
    }
  }
}
node {
  name: "rnn/stack_bidirectional_rnn/cell_0/bidirectional_rnn/fw/fw/Maximum"
  op: "Maximum"
  input: "rnn/stack_bidirectional_rnn/cell_0/bidirectional_rnn/fw/fw/Maximum/x"
  input: "rnn/stack_bidirectional_rnn/cell_0/bidirectional_rnn/fw/fw/strided_slice_1"
  attr {
    key: "T"
    value {
      type: DT_INT32
    }
  }
}
node {
  name: "rnn/stack_bidirectional_rnn/cell_0/bidirectional_rnn/fw/fw/Minimum"
  op: "Minimum"
  input: "rnn/stack_bidirectional_rnn/cell_0/bidirectional_rnn/fw/fw/strided_slice_1"
  input: "rnn/stack_bidirectional_rnn/cell_0/bidirectional_rnn/fw/fw/Maximum"
  attr {
    key: "T"
    value {
      type: DT_INT32
    }
  }
}
node {
  name: "rnn/stack_bidirectional_rnn/cell_0/bidirectional_rnn/fw/fw/while/iteration_counter"
  op: "Const"
  attr {
    key: "dtype"
    value {
      type: DT_INT32
    }
  }
  attr {
    key: "value"
    value {
      tensor {
        dtype: DT_INT32
        tensor_shape {
        }
        int_val: 0
      }
    }
  }
}
node {
  name: "rnn/stack_bidirectional_rnn/cell_0/bidirectional_rnn/fw/fw/while/Enter"
  op: "Enter"
  input: "rnn/stack_bidirectional_rnn/cell_0/bidirectional_rnn/fw/fw/while/iteration_counter"
  attr {
    key: "T"
    value {
      type: DT_INT32
    }
  }
  attr {
    key: "frame_name"
    value {
      s: "rnn/stack_bidirectional_rnn/cell_0/bidirectional_rnn/fw/fw/while/while_context"
    }
  }
  attr {
    key: "is_constant"
    value {
      b: false
    }
  }
  attr {
    key: "parallel_iterations"
    value {
      i: 32
    }
  }
}
node {
  name: "rnn/stack_bidirectional_rnn/cell_0/bidirectional_rnn/fw/fw/while/Enter_1"
  op: "Enter"
  input: "rnn/stack_bidirectional_rnn/cell_0/bidirectional_rnn/fw/fw/time"
  attr {
    key: "T"
    value {
      type: DT_INT32
    }
  }
  attr {
    key: "frame_name"
    value {
      s: "rnn/stack_bidirectional_rnn/cell_0/bidirectional_rnn/fw/fw/while/while_context"
    }
  }
  attr {
    key: "is_constant"
    value {
      b: false
    }
  }
  attr {
    key: "parallel_iterations"
    value {
      i: 32
    }
  }
}
node {
  name: "rnn/stack_bidirectional_rnn/cell_0/bidirectional_rnn/fw/fw/while/Enter_2"
  op: "Enter"
  input: "rnn/stack_bidirectional_rnn/cell_0/bidirectional_rnn/fw/fw/TensorArray:1"
  attr {
    key: "T"
    value {
      type: DT_FLOAT
    }
  }
  attr {
    key: "frame_name"
    value {
      s: "rnn/stack_bidirectional_rnn/cell_0/bidirectional_rnn/fw/fw/while/while_context"
    }
  }
  attr {
    key: "is_constant"
    value {
      b: false
    }
  }
  attr {
    key: "parallel_iterations"
    value {
      i: 32
    }
  }
}
node {
  name: "rnn/stack_bidirectional_rnn/cell_0/bidirectional_rnn/fw/fw/while/Enter_3"
  op: "Enter"
  input: "rnn/stack_bidirectional_rnn/cell_0/bidirectional_rnn/fw/fw/GRUCellZeroState/zeros"
  attr {
    key: "T"
    value {
      type: DT_FLOAT
    }
  }
  attr {
    key: "frame_name"
    value {
      s: "rnn/stack_bidirectional_rnn/cell_0/bidirectional_rnn/fw/fw/while/while_context"
    }
  }
  attr {
    key: "is_constant"
    value {
      b: false
    }
  }
  attr {
    key: "parallel_iterations"
    value {
      i: 32
    }
  }
}
node {
  name: "rnn/stack_bidirectional_rnn/cell_0/bidirectional_rnn/fw/fw/while/Merge"
  op: "Merge"
  input: "rnn/stack_bidirectional_rnn/cell_0/bidirectional_rnn/fw/fw/while/Enter"
  input: "rnn/stack_bidirectional_rnn/cell_0/bidirectional_rnn/fw/fw/while/NextIteration"
  attr {
    key: "N"
    value {
      i: 2
    }
  }
  attr {
    key: "T"
    value {
      type: DT_INT32
    }
  }
}
node {
  name: "rnn/stack_bidirectional_rnn/cell_0/bidirectional_rnn/fw/fw/while/Merge_1"
  op: "Merge"
  input: "rnn/stack_bidirectional_rnn/cell_0/bidirectional_rnn/fw/fw/while/Enter_1"
  input: "rnn/stack_bidirectional_rnn/cell_0/bidirectional_rnn/fw/fw/while/NextIteration_1"
  attr {
    key: "N"
    value {
      i: 2
    }
  }
  attr {
    key: "T"
    value {
      type: DT_INT32
    }
  }
}
node {
  name: "rnn/stack_bidirectional_rnn/cell_0/bidirectional_rnn/fw/fw/while/Merge_2"
  op: "Merge"
  input: "rnn/stack_bidirectional_rnn/cell_0/bidirectional_rnn/fw/fw/while/Enter_2"
  input: "rnn/stack_bidirectional_rnn/cell_0/bidirectional_rnn/fw/fw/while/NextIteration_2"
  attr {
    key: "N"
    value {
      i: 2
    }
  }
  attr {
    key: "T"
    value {
      type: DT_FLOAT
    }
  }
}
node {
  name: "rnn/stack_bidirectional_rnn/cell_0/bidirectional_rnn/fw/fw/while/Merge_3"
  op: "Merge"
  input: "rnn/stack_bidirectional_rnn/cell_0/bidirectional_rnn/fw/fw/while/Enter_3"
  input: "rnn/stack_bidirectional_rnn/cell_0/bidirectional_rnn/fw/fw/while/NextIteration_3"
  attr {
    key: "N"
    value {
      i: 2
    }
  }
  attr {
    key: "T"
    value {
      type: DT_FLOAT
    }
  }
}
node {
  name: "rnn/stack_bidirectional_rnn/cell_0/bidirectional_rnn/fw/fw/while/Less/Enter"
  op: "Enter"
  input: "rnn/stack_bidirectional_rnn/cell_0/bidirectional_rnn/fw/fw/strided_slice_1"
  attr {
    key: "T"
    value {
      type: DT_INT32
    }
  }
  attr {
    key: "frame_name"
    value {
      s: "rnn/stack_bidirectional_rnn/cell_0/bidirectional_rnn/fw/fw/while/while_context"
    }
  }
  attr {
    key: "is_constant"
    value {
      b: true
    }
  }
  attr {
    key: "parallel_iterations"
    value {
      i: 32
    }
  }
}
node {
  name: "rnn/stack_bidirectional_rnn/cell_0/bidirectional_rnn/fw/fw/while/Less"
  op: "Less"
  input: "rnn/stack_bidirectional_rnn/cell_0/bidirectional_rnn/fw/fw/while/Merge"
  input: "rnn/stack_bidirectional_rnn/cell_0/bidirectional_rnn/fw/fw/while/Less/Enter"
  attr {
    key: "T"
    value {
      type: DT_INT32
    }
  }
}
node {
  name: "rnn/stack_bidirectional_rnn/cell_0/bidirectional_rnn/fw/fw/while/Less_1/Enter"
  op: "Enter"
  input: "rnn/stack_bidirectional_rnn/cell_0/bidirectional_rnn/fw/fw/Minimum"
  attr {
    key: "T"
    value {
      type: DT_INT32
    }
  }
  attr {
    key: "frame_name"
    value {
      s: "rnn/stack_bidirectional_rnn/cell_0/bidirectional_rnn/fw/fw/while/while_context"
    }
  }
  attr {
    key: "is_constant"
    value {
      b: true
    }
  }
  attr {
    key: "parallel_iterations"
    value {
      i: 32
    }
  }
}
node {
  name: "rnn/stack_bidirectional_rnn/cell_0/bidirectional_rnn/fw/fw/while/Less_1"
  op: "Less"
  input: "rnn/stack_bidirectional_rnn/cell_0/bidirectional_rnn/fw/fw/while/Merge_1"
  input: "rnn/stack_bidirectional_rnn/cell_0/bidirectional_rnn/fw/fw/while/Less_1/Enter"
  attr {
    key: "T"
    value {
      type: DT_INT32
    }
  }
}
node {
  name: "rnn/stack_bidirectional_rnn/cell_0/bidirectional_rnn/fw/fw/while/LogicalAnd"
  op: "LogicalAnd"
  input: "rnn/stack_bidirectional_rnn/cell_0/bidirectional_rnn/fw/fw/while/Less"
  input: "rnn/stack_bidirectional_rnn/cell_0/bidirectional_rnn/fw/fw/while/Less_1"
}
node {
  name: "rnn/stack_bidirectional_rnn/cell_0/bidirectional_rnn/fw/fw/while/LoopCond"
  op: "LoopCond"
  input: "rnn/stack_bidirectional_rnn/cell_0/bidirectional_rnn/fw/fw/while/LogicalAnd"
}
node {
  name: "rnn/stack_bidirectional_rnn/cell_0/bidirectional_rnn/fw/fw/while/Switch"
  op: "Switch"
  input: "rnn/stack_bidirectional_rnn/cell_0/bidirectional_rnn/fw/fw/while/Merge"
  input: "rnn/stack_bidirectional_rnn/cell_0/bidirectional_rnn/fw/fw/while/LoopCond"
  attr {
    key: "T"
    value {
      type: DT_INT32
    }
  }
  attr {
    key: "_class"
    value {
      list {
        s: "loc:@rnn/stack_bidirectional_rnn/cell_0/bidirectional_rnn/fw/fw/while/Merge"
      }
    }
  }
}
node {
  name: "rnn/stack_bidirectional_rnn/cell_0/bidirectional_rnn/fw/fw/while/Switch_1"
  op: "Switch"
  input: "rnn/stack_bidirectional_rnn/cell_0/bidirectional_rnn/fw/fw/while/Merge_1"
  input: "rnn/stack_bidirectional_rnn/cell_0/bidirectional_rnn/fw/fw/while/LoopCond"
  attr {
    key: "T"
    value {
      type: DT_INT32
    }
  }
  attr {
    key: "_class"
    value {
      list {
        s: "loc:@rnn/stack_bidirectional_rnn/cell_0/bidirectional_rnn/fw/fw/while/Merge_1"
      }
    }
  }
}
node {
  name: "rnn/stack_bidirectional_rnn/cell_0/bidirectional_rnn/fw/fw/while/Switch_2"
  op: "Switch"
  input: "rnn/stack_bidirectional_rnn/cell_0/bidirectional_rnn/fw/fw/while/Merge_2"
  input: "rnn/stack_bidirectional_rnn/cell_0/bidirectional_rnn/fw/fw/while/LoopCond"
  attr {
    key: "T"
    value {
      type: DT_FLOAT
    }
  }
  attr {
    key: "_class"
    value {
      list {
        s: "loc:@rnn/stack_bidirectional_rnn/cell_0/bidirectional_rnn/fw/fw/while/Merge_2"
      }
    }
  }
}
node {
  name: "rnn/stack_bidirectional_rnn/cell_0/bidirectional_rnn/fw/fw/while/Switch_3"
  op: "Switch"
  input: "rnn/stack_bidirectional_rnn/cell_0/bidirectional_rnn/fw/fw/while/Merge_3"
  input: "rnn/stack_bidirectional_rnn/cell_0/bidirectional_rnn/fw/fw/while/LoopCond"
  attr {
    key: "T"
    value {
      type: DT_FLOAT
    }
  }
  attr {
    key: "_class"
    value {
      list {
        s: "loc:@rnn/stack_bidirectional_rnn/cell_0/bidirectional_rnn/fw/fw/while/Merge_3"
      }
    }
  }
}
node {
  name: "rnn/stack_bidirectional_rnn/cell_0/bidirectional_rnn/fw/fw/while/Identity"
  op: "Identity"
  input: "rnn/stack_bidirectional_rnn/cell_0/bidirectional_rnn/fw/fw/while/Switch:1"
  attr {
    key: "T"
    value {
      type: DT_INT32
    }
  }
}
node {
  name: "rnn/stack_bidirectional_rnn/cell_0/bidirectional_rnn/fw/fw/while/Identity_1"
  op: "Identity"
  input: "rnn/stack_bidirectional_rnn/cell_0/bidirectional_rnn/fw/fw/while/Switch_1:1"
  attr {
    key: "T"
    value {
      type: DT_INT32
    }
  }
}
node {
  name: "rnn/stack_bidirectional_rnn/cell_0/bidirectional_rnn/fw/fw/while/Identity_2"
  op: "Identity"
  input: "rnn/stack_bidirectional_rnn/cell_0/bidirectional_rnn/fw/fw/while/Switch_2:1"
  attr {
    key: "T"
    value {
      type: DT_FLOAT
    }
  }
}
node {
  name: "rnn/stack_bidirectional_rnn/cell_0/bidirectional_rnn/fw/fw/while/Identity_3"
  op: "Identity"
  input: "rnn/stack_bidirectional_rnn/cell_0/bidirectional_rnn/fw/fw/while/Switch_3:1"
  attr {
    key: "T"
    value {
      type: DT_FLOAT
    }
  }
}
node {
  name: "rnn/stack_bidirectional_rnn/cell_0/bidirectional_rnn/fw/fw/while/add/y"
  op: "Const"
  input: "^rnn/stack_bidirectional_rnn/cell_0/bidirectional_rnn/fw/fw/while/Identity"
  attr {
    key: "dtype"
    value {
      type: DT_INT32
    }
  }
  attr {
    key: "value"
    value {
      tensor {
        dtype: DT_INT32
        tensor_shape {
        }
        int_val: 1
      }
    }
  }
}
node {
  name: "rnn/stack_bidirectional_rnn/cell_0/bidirectional_rnn/fw/fw/while/add"
  op: "Add"
  input: "rnn/stack_bidirectional_rnn/cell_0/bidirectional_rnn/fw/fw/while/Identity"
  input: "rnn/stack_bidirectional_rnn/cell_0/bidirectional_rnn/fw/fw/while/add/y"
  attr {
    key: "T"
    value {
      type: DT_INT32
    }
  }
}
node {
  name: "rnn/stack_bidirectional_rnn/cell_0/bidirectional_rnn/fw/fw/while/TensorArrayReadV3/Enter"
  op: "Enter"
  input: "rnn/stack_bidirectional_rnn/cell_0/bidirectional_rnn/fw/fw/TensorArray_1"
  attr {
    key: "T"
    value {
      type: DT_RESOURCE
    }
  }
  attr {
    key: "frame_name"
    value {
      s: "rnn/stack_bidirectional_rnn/cell_0/bidirectional_rnn/fw/fw/while/while_context"
    }
  }
  attr {
    key: "is_constant"
    value {
      b: true
    }
  }
  attr {
    key: "parallel_iterations"
    value {
      i: 32
    }
  }
}
node {
  name: "rnn/stack_bidirectional_rnn/cell_0/bidirectional_rnn/fw/fw/while/TensorArrayReadV3/Enter_1"
  op: "Enter"
  input: "rnn/stack_bidirectional_rnn/cell_0/bidirectional_rnn/fw/fw/TensorArrayUnstack/TensorArrayScatter/TensorArrayScatterV3"
  attr {
    key: "T"
    value {
      type: DT_FLOAT
    }
  }
  attr {
    key: "frame_name"
    value {
      s: "rnn/stack_bidirectional_rnn/cell_0/bidirectional_rnn/fw/fw/while/while_context"
    }
  }
  attr {
    key: "is_constant"
    value {
      b: true
    }
  }
  attr {
    key: "parallel_iterations"
    value {
      i: 32
    }
  }
}
node {
  name: "rnn/stack_bidirectional_rnn/cell_0/bidirectional_rnn/fw/fw/while/TensorArrayReadV3"
  op: "TensorArrayReadV3"
  input: "rnn/stack_bidirectional_rnn/cell_0/bidirectional_rnn/fw/fw/while/TensorArrayReadV3/Enter"
  input: "rnn/stack_bidirectional_rnn/cell_0/bidirectional_rnn/fw/fw/while/Identity_1"
  input: "rnn/stack_bidirectional_rnn/cell_0/bidirectional_rnn/fw/fw/while/TensorArrayReadV3/Enter_1"
  attr {
    key: "dtype"
    value {
      type: DT_FLOAT
    }
  }
}
node {
  name: "rnn/stack_bidirectional_rnn/cell_0/bidirectional_rnn/fw/gru_cell/gates/kernel"
  op: "Const"
  attr {
    key: "dtype"
    value {
      type: DT_FLOAT
    }
  }
  attr {
    key: "value"
    value {
      tensor {
        dtype: DT_FLOAT
        tensor_shape {
          dim {
            size: 192
          }
          dim {
            size: 192
          }
        }
        tensor_content: "\036,\342>\277h\337\275\'\200\226\276@r\036>Cv\367>\374\026|\277\244S\346\276\2604\240=\250\277\310\275\312\234\007?\264Ac\276\317Q\024>\337\242\361\276\326\265J=\311\243\312>;\303\037?\321\007\265>O;\236\276q\313\245=\230\272^=\211(\r\277\225Zi\276I\242\370=7\024\302\276\004\315X>]\217\013\277\332\035\203\274}\351@\275\314a{\276\270\264\000=\235\010\346\275\277\226\244<\234r\214\275\271\346\025<-d\361\276\275\277\r\277\346c\014\277\214\202\341\275\231\242\022?\253\376&\275\301Z\004\277\335\355R\276E\017\252>\034\234\314\274v\034\274=\255\212\200\275\022\030\271\2767D!\2760P\204>\316\037\312\275\310\007[>\212\201\337\276\206\\\331\276\340\361\200\275:\344\250\276Tz\r\276\t\306v>\016E@=\241\356\002\277V\322\222>>Jg\276\200\337\225\276t\210\006\277Q!$\276 \026\365\274\311,\335<\374c\225<\243\307Q=f\2624>V\216E\276\367v\001>\233\342\327\276 \2660\277\245S:\277\256\2537\276\n\375\">L\t\276\275\274\346i>>\355=\2777\026\363\275\275%\317=H2w\276G\336`\275\300(8\275\246\322\027?\3568\353>\305D\263\276\315AJ\276\024\202\023?\016\033!\277\213_\224\275\237\204p\276\212\200{\277\333\2314\276\343\203\\\275\252A\177>\026\333\253>\202m\001\276RsS\277\255\205\201\276\301\206\257>Q&\212\276jm\000\276AZ\034>\367W\224>\031\226\264>\014\326]>\306\003\014\276\275\255\343=\263\341\252>\344v%\276\300\026\227?\271\n\351\276?\234\260>\341\352\316\275 \345\314\276\023\345\303>B\014\315\276\021\245\241>\362u\001=X7m><\367\354\276\250z6=\260\206\333=\\\320\275>\304t\227>\024\3674\2765\210.?)\001\314\276\026\315[\276\204\355\037>ni\243\276\215*\230=\016\251\026<\371_\t>>\302\023\275-w\202\276\027R\023>\021\236\305>\024c\320\275\254\"\322>\355\"[\276\023]\304\276\224e\357\276\001\014\310\275\344M}>\321\021\266=\262M\277>\373\264\204>\245\311\000\277\251\342\357\2769\246\034?a\235@<\266\006\344\276\2616\217=\177\335>?;\351p\276\271\014\026>%\026g=\316/\255>\345\004\246\275\310\200\003\275\206-Z\276\264\302:>\351K\246\275Y$@=\377p\352>_\353#\275\006\320,\276\225\377\323\275T\242\034<#\r\322=\312s1\276\336\021\356\274\202\r6?gR\262\2765\275\030\275\212\317\266\276\321\r\205>g\"v\276}\\\301\275Z(\210\2764x\205<Al\206>\263{:>^Q\t>o\016\356\275\376\230\\\277{\226\375\2752+\006\276\\\367\033\275@\214\314\276\362\370\204>f\201\004>\250\217\t\277\"\202\200=#\204x=>\341\034>\276\251u\274\001\024\272\276\r\225\321\276\330\227\310\274H\334\242>\243%\314\276iP\303\275<\357\313\276\227\014\016\277\024\376]\276\363y\250\276\322\006V>\346{\220\276f\274#\277\014\014\214\276\343\275\312\276\312\357\034\277\351\237{\276\322|A\273\374!\274\276\362\367\232>^\305C>,3)>A\200\023?0\354b\276\315\354\332<\211#J\276\024\365\227\276b\337\017>a\254\223>\235\336\303=\327\323\'\273\243G\311>\277\327V\276\313\030\323>\0057\262\276)\231\322\275b\342y\275\202\361\266<|g\010\276\205D\277=\231\247W\277\225\321\t?\300\240\312\275\326\016\201>9)\025\277\002J\207\276M\267\376\276by\016\277\367\222\356\276Y\212(>x\342:>BA=\277\206\321\213>]L\307\274`R\001>.\001\325\275\332\242\323>\272o5\276/\006\231>wb\"\276y\306\200>\3534\240=\320\226\277\276&$j>d\2365\274\024\342\345\275\232\321d\276$]\226>\230\177\367>\200\332\204\2763\336D\276\004N\335>\311\006@>\3325k?\264\3109>]rU\276\275L\366>\300\352\036\274\276}\323\276|\341\355= \274!>\277\032\265>\321\255\337\275#\363\037\276F+\002\277\302\254\226=\346\2664\277B\021\231\276..\200\275ow\224>\374\312\000?\327@m>\'\230$>\364\214\243\274\354\354\331<\207\266\"\277\201\230\301>\306E2\276\017\017s=\352&\255\276\225$\n\277K\033\022?fU\256=w\036\302=n\227\245\276\337\202\000\277\302\002|\276\356\024\274=RT\211=\341)\014>\314\211\263\275leA=\262\355K\276\274\214\374\274s\316i\277\024\356;\276&\263\336\276\035H6=\350\"C>\034d\202\276\275n@=:i\243<\210\372\024>5\000\354\276\313\357\026>\301\010\007?^\220\372=\366\332\277=\323\352\002>\007L\207>\251\377\240>\353\200q\276\307\276\331>\256\370\247=\321\211\003>[\r\013\2771g\273>\242\016O>\232\365\301\276E\212\212\275x\321m>@\352\366\276\266\023\215>nP\336\275\247\032:\277K~4>\346\010\311\275\026\236\334>\277<z\275\036\003\263=\317\245Q>\261\3747?\357\rX\276si\253=\230\203\324>\245$\255>\022x\277=\345)\233\274;i\214<\227V\362\276\250Q4>\023\240a\276\2114\017?9\315\261\275\364*\222\276L\300\333>ix\332\275\243\360\335\275\333\321d>\'\253\022<\014r\177>\2463\026>\352\256=>\307\370\203=\354\327\223>u\304\231\274\273\"\"\277\252q\320>\017\247\222>\367b\353=\223\026\262=3\177\217\2763\353\270\276\332\263\331\275\004Z\231>\310\347 \276J\210.>\365?\260\276#\250\223\276Q\251\275>\001\n\372\275\237\331k\276\370$\227>\243\311\232\275\273\260\347\275\351K\006\277(\275\241\276\223\'\325\276\262.s\276\220Sc=W*\204\276\214<\260>4\302i=\335\224\222\275\265F\347\276\342\2214>\233<\350>\270\205\377>\275\223\351>jS\363\2751\273\221>\214n!\276\016\206\276>\030\246\234>Iu7=\2509\220>\374\036\364>\003\206\204>\304|:>G$\333>\2378\016>\375\334\006?p\277V=T~\002>{\310F>\360\245\r?\265\303(=9\r\037\277\335\265\007\276\237t\260>r\340\275\276\311\271(?#,\225>\367\224Y>\005\275\003>q\020]?*\254\316<R\202\022\277Y\366\266=q\236z\276\231b\253=1\272\265>y\264\000\275\\w(<n\321\300>\377\206\010\277=-\347>%c\202\276M\032J\276\305\005\026?I\336j\276\242W2\275\\f\270=N&e?\363\347\265=0\203\t?:\307n?s\247r>\245\233%> \337\252>\004t\211\276\207\340^\276\305\365\'\277j\263N\276\035\227\002\2777W<\276\240\310\224<b\272~\276A\2511>\231\020Q\2778C$?\020k;?\207\324\256\275\226\223\240>\225\273\337>v\002\242\276\313\035\270=S\375\202\276\203\374\313\276\251\025\346\276\342]\245=_\333\030>|\004x\275\315\267X>(\314\313>u\252\014>XH\206>\342\005\021>w\036\305=\n\337\267\275\220\031\200\276\262\350a>,\227>?\"a\002\276\313\314\231=s\263\027>R\236\271\275\030$Y=\027\357b>\030\217\245\276\0228\222\274\370\323\027?\232\035\301>t\212w>\367\032\022\277\325\242a\276#xV>\212C\241\274T\2511?,\315\347>\270RA=}\313\262>\342AA?-\223\224<c\010\375\275\324\366d>f\255\000=$VU\273\367\367;\276S\024%\276\034P\n>\352\206\231\275\024\014\201\276\347\261x\276\333\245\213=\340M\216\276&dw\276W\324)\275\220;\365=Xql\275\340\t!>\233\217\350\275\347:\246>\331\010\242\276x+\307>\331\221\223>?\2775\276\177\3115>\335\236\027?z\231L\276e-\252\276\004\244\256>\227\361F\276\022\350\200>\377\266\036\277VA&?\255u\265\276EX\n?X\013\203\276\366\315\252>V#\320>\366\222-\276\335\202\355\276\314\363Q=pd;>w\243N\276f\366\243\275\321\251\260\276&\314\007\274\311\335\321\274\305$!>n\270\230=\035\345\373\276a%\214=\317M\375\275_\277\370\273t(\270>\250\360\302\275\245X\312>YT\002?TE\021\277y\1773>T\016\221>`*)\277\252j\362\276\314\037Z\276:\225\246=L\324->i\367\361\275\307!\270>n\221\000?\267\246\024\276;\356@\277*I\'?\243\201\026\275FC\255>\247\265\371>\263\215\314=\034\262E>\r-\225\276\247L\311>\216\362J?\271D\300>\362\351\\\273\377\0027\276#\254\202>~*f=_.\204\273\3252\303=8\203h\276\322\314\322\275`E\245\276\365\344\025?\226P\017?\036\202\230\276h\271\344\277c\023x\276{\267\037>\261;\317\274\310\215\n\276f\024\370>K\347[\276\324\353~>\231\022G\276\360\336\252>q\t\321>9\327r\276X\305\331=\327E\215>\351x\037\277\301\3319\276)\201G\274\365a\340=Z\251\375\274\231\314:?\314\213\270\276\350(\300=\374\202\277>T\017\014\276c[\273\276\245\026%\277#\200o\275\353\347\362<!\3449>4\334\372>\302d\256\275 \276\203\275\221\327\336\276\323\004\'<4\204\241\276\237\304\026\277\306\230$>rg\206>\270\324#\2766\376\331>?\024#?\033\206\305\276FJ\035\275\036\014L\275S\367\264<\260\002S\2760\350\251>\367\306I\274\266\366\337>6\373H>0\027\312\276*\305\031\276s\325\260>\367\240r=\337\346\275>\201rI\276\006iO\277V\001\013?$\014n><\221&?\337?\233\275\266\323r\277q\366>\277\344\241\376\275\177\0376\276\032\013\333>\375\212w\275$-\352>H\221\014=-S\005>\313s\221=\354\206\250\276\024\306\361=\345g\305>g\216\342\276\"iU>\305\275\025=\260(\214>\224\222\312>\r\230\365>\241\250z\276\363\333\\\276 \033\243\276\271]&>\343y\300>\364\335\272>\210s\233>X\212\354<-c\016\277\373\017\236\274\345\\\r\277Li$\275\276\242\203>\000\344\002>Uo\223<\327\264\233>{t\025>\213&\273=\235\313\032\275:f\236>[\254_\276nWW>\226\376=<\231\235\230\275v\006+?\027\262t>\365\301\274=\252\217\266=,\201\022\277\035\017\207>\232L\240\276F(\313\276\274\3208?W^\002\277\272\334@>\247\276\254\275\242\270\327\275\367c\302=\331\037g\2762\004e\276G\245\267>\024\250\r=\267$\252\276\273\250m>q6B\276\363G\314\276\034!\016?y\321\311=\323j\r?!Q\326\274\260\271!\277P\325\302\276\304z\021>\352\256\035?\256h\212\276\2349\031\277\033vs>\315\316\357>\036\2274\276TSd>K\322\274>x\216\006\277D\r\330<\0005C>\210nQ\275\014\237\211\275\372A\004\277al8\275=\353k>\350\337\365\275\376\346\330;\004\372\217\2763h\367=\353+\303=@,n>K m=wy\002?\023=\217<#\203<>\257TM\277\031\211h\275\305\002.=y)(?\350\326:\276\316\212\342\275\305\362\220?\345\263\206\276\352?W>\257\362\030>\355tq\2765\\\300>9\245\010?\277\257\321=\r\262\032?\362\002\250\276\241\003\334\276\364\324\n\277N\261\254<yo\256\276T\337\341>9\366\247\276)\340\214\276j\002\342\276\324h\237>A,\236\273R5\303=\371\256\306> \213\313>\207\370\360>\326\264\220\276Y\026\\>@Zx\276-\314\207>\325\224j?\310\322\252>C\235\203\2762:9\275\207\230a\275\332\307\010>1\333\"<\236\350\312\276\361\256y\275\036\226\355\276ZN#=\305[q>\014\247\223\277\261\002G\275\t\260v=\310S\273\276]\207c\276\214p;?\304{\314\276\312\260o>\276\376\'?S\237\355<\037f\005\276\2268 ? U\016\275\367}3>9\032h\276\235{\031=\236\277\020\276\246\250\003\277_$-?z:]=x\007u>\313\314G\2739\024#?\270\200s<\224\342\013?1_\366\2756\031E?)\033\037?\001X;?/\315\236>.\200\261>\333\"\206?`\206\300<\357:s?K\321B>Z\214\'>\232\356\317>)\341\200\276\205\361\271=\027K;\276\274X\260\276Z\335m\275\322;`?\312[\002?G\217l\276kC\370>\352\303\367>\016\351\325>kj\000\277]\031\373>\214\263U\276}\3575?S\262\264\275a\332\226=\307\215u\274\265b\213=6\331\335\274\1770n>\023\241\302\275kO\332>\222\036\244\276\367\205\237\276\'\306\375\275\214j\271>\301\n_>\014\353\371\275(\244\320\276\303J\022>\260\r\217\276\224*\007?<\277\226=\275R\345\276W\304\223\276y;\370>\006t]\276\210Zg>J\316\020?\211\214/>\301S\246>\325\326\366>+\373\214\277z\356\353>\007#\360\275\375c\253<Q%\357\275+\320E>\271+\301>\230\035\214\276\325\261\006\276\317\262|\276\2237}?\206\002X\276*\213\264>\332\361L?]\354z\276\251uM?\265\326\002\277\256\266\272;H\321<>\0379\243\276\270P\310=\032\'\037\277\024\014\200>\344\371T>\037}\214>\201~\332;y\375\321>:w\306\276\221$\271\276\360\320\250>\223\t\333\276\314\000P\276\351\\\037>4\302]?\257\211\360\276MO\335\276\273\276.\277Ql\344<\343m\214>J\321a=\002\300\275>\206\243P?^\236M\276E\233`=\007?\377>S7\310\274{@\275\276!\245\010\277\205\354G?\21672>Q\007\307\276~\345\345>;k\234>\362\347\271\276\317\215(>\322\223H\276e\266\037<R\025M>\205\207\014?\r5\242=z?z>3\005)>+\337=\276\265\231<<\202VE\276%\207\023?*\271s\276\242\013\364>\363\243p\276\230\240\243><\357\307>\363\233(>\325]\031\277:0\036>\316\0051=\270(\203\276\243B\236=RB?\277;7\344\276\213\010b\276\365\033\000\277\006\202\017?\344\243\331<RK\204=(Si=\260\227\241>\360\224\306\276\024G\263\274\367o\236\276\271\263H<\025\347\356\276\250\252A\276\253\203\261=\311\336(=\336Q!?\211\305\314=M\353*?\314\207\332>\303m\246>F\377\250>1\007}>\0132\322\276\006>\021?b\375\217>\001]\314=\224\020x\275\\\333\037\276?\246\367>\372\363\013\277\000s\036>~\254\340\275\231\266\235>Bj\212\2762/\244\275\262\242\r\276)(\006?M\250\337\275\265\276\240>e\033\204\276f\007\036?\330\252\010?\177\230\216>\031\302F>\013\273H\276\3567\r\277,\013\201\276\237\320A\276=a[\276\004\214W>\207!\366\274\303\337J>\331\t\375=\355H(=\035K\031>2\236\252=:\2316>\322N\314>\000.\346\275\206\216f?Q \327\274pq\230>\014lO\274t\300\256\275\247\020\201>\236H~>S\247\323>\225\346W>:l\267\276\211\354\n\277\327\025\210>x\337\022\276\322P\"?$L\244\276\261\316\231>\"\026Q>\373\234\361\274\352\316\245=\305\276\336>\377\323\024=y\217\036?wsG>\343\257\013\277\331\013:>\273\335]\276\264AP\276E\2138\276\201%\236=\\\205\245\276x\210\233=\206a\034\276&\306?\277\333X\355\276\3655\357>\013\216w\276\307\330<?4^l\276\214\'\210>\023\235\202\276\230\253\354\275\235\0104>\204\232\275>G\322\024\277\373/\301\276\267\2170\277\230,\306\276\275\237\327>e\245\355\276\331\324\001?P\207y>\032x\304\276\010\267\271>\024$\274\276\0106?\276\n\355\227=\315%\207=\306\016\305<3\204\260=\221E\333\276\347\267H\275\236F\210>t\375\214>\361\315\200\276d\370\035?\305\367\210>U\345\214>\203=J\276\021\327\330\274g]\016?\357\311-\276\243\310\255\275$C\374\274\357\235\257\275\014a\342\274\260\332z\277!\347\235>[\206\003>\300e\230>\221\267\266\276N\326\010\277\213\204#\277\261\275\"?\275\353\"?-^\376<j\215\210?\337\347];d\276\272:\222c\342\275\375\001*\277\033\332j\276\361\343\267\275wi\244>n\0269>\266\033\312>\326\347\332\275\376E\231>\013\003\207>}\033O>U\206\230>\2451\250>[\372\036\277\213\336\332>R\2237\276\344\207\n\277\263Od\276u\001\316<w\207\250>i\253\321\275j\000W>\0101\036>&\225\321\276\373J\204=)\017\335\276\353\324\223>6\347\016>\023F\247>\370\343\357\274\0227=\276\245\023\242>4\340\256=\305U\315\276\336I\033\276\031\r\'\277D\246U?\375\253p?\014\031\000=\361@I\276\004\030\311>\271\340\014>\360\275\211\276\357\346V>,\006\322\276\333\317\247\276\265Xw>\260\357H>lj\335\276\034\334\010?\223\347\267\276\254:\341\275\246]\256\276\353T\272\276\2159\231\276d\023\246>t\261$\275\244\037\026?\\\273S>|} \276\245\353\025\277\266\276t\276R\022\033\276\372l\234>\010\267\006?s5,\277\323\253\250=ZUE>c]D\276(@\034<1\216\207>A\351\300\275\343\023B>ff\006?}\363\236>\342\256\342=\274\323\232\276\327u\014?\355\355^\276\353\027\222\276E\226h\276\320V\274>\376b\244>>\311\330\276K\3619\276\"\002\255\275yZ\222\276F\352\223\276\376Z\216\275\332\220D;\366\0149\277m\305\275\276`\226\205=*\261\254;\345d2\276si\321\276gl\304\275U\352\316>\352\316->\316@\322\276\266\321\277>H\266l\277%O\275>?\216\270>q\303\316\276\362\305\253>vv\217\2763\201 \276y0\353=\244t|\276\275\316\333\276o\342>\276\346\231\t\276\300\034\240\276K\023(>\242\2362\277\253\305-\276\363&&?\364RN\277\\W\317\276\376\022\014\277\364\221?>\237\332m\2759\034\021\273\316\246E\277\201\r\020\274O+\363=\271D\t\277\263\247\215\274\252}\037\277\353?\352\274\\\020\222\276\031v\224\276\'\224\251>\321\275+\276\243M2>\0171\244\275`p\026\276\232\371\350\275\r.\323\276\344o4>\206\301]\276\337\2635\276u\277\216=\311\024=\276\351\016Z=g\343\r\277\001#T\275w\212\230>o\326+\274\332\206w=\356A\001>\\I\010\277.\325D\276\327U#\276\214+\261>\001\345I\276\334\372\202;\227\032\315\2763\331\336\2750\224S\277U\360\026\276\275\004G=\320\261\030\277\037\254O>\244 \306\276\\\314\376<Q\263\242\276\353\0321\275!\326\240\276\234\336/?\331\240\007\276-\205j\274\\\232\303=\246\352\373\275C\363G>\202*\232>#\255\225\275\275\177\335=\244-\357\2760S?\277\tZB\276\204\360\003\277\324#\005\277\257.\253\2761\243\n\275o\367\230\276\375\333\221>\316d\016\276!\302\203\276c\325\252=\372\355+\2768\017\217\276o\362\264=\021>!>k\323\202>\022\266\034>\256\'\235\276\224\007\003?{\005{\276\025W\220=u\237\346\276\303d\311\275\303v\261<\312Q\335\274\240\352\034=9\301\035\275\253\234\271=V\030F\275\r\352\315<\201\312\312\274I\343\231>eIl\276m\336\037>=\203\321\276\345(\324\275\334#\235\275\364|Y\274\364US\275M\232j\276\013\243\314>\200\324\220\276\t\263\255>\206\244\365\275\'\031\365\276\233\364I\276\347\023\262>W\245\316>\266MW\276,hY>z\214\341>\017\336\032>\364\n2\276;rV\277\354\377\244>\314\257B=,\330\334>\022\260\033?\207Or\276F\235\013?l~\r?\252)y\275\037/\340=\311J\250=F\367N>$\220t\276\344\002\273?\371\003\342\276\311\250\300\276|\177\"\276\231\365c=\237\373\266>K\350r\276\221\n\373\275\267\257{\275\217\256\221\275\267\374\315>\276\010 \277m\310\313>t\331\250>%\226B\275\2246#\277\0259i=\314\000\255\276\343\316?>\316\231\234\276\267\t[\275g\217\303>$\374\252=j0\033?#\030e?\335+;?\361\334\262>eqX?\357\002\262\276\277l\321\274\"I\376>\213\344F\277\302\235R\276&*-\276\2313\222>\314\035\232\276P\361\216\275\205lJ<\253\177F\276-\244\027\275\025\274*\275\226\\\337>Z\204\037\277\001\336m\276\250\222[\276\375Dk>Q\226\243\275\271\356\031\275WXI\276\034\214\273\276I\022 \276r\213\347\276\362\353\277>\013\3131?e\254&?\032\332z>f\364\246\275\224\365\221>e\355f>\246\3003>\272\216\210\276\251\231\216\275^\312\021>\265FR\277\334VL\276\002\350V\277O?\250>\302!\247>\017\217\351\276\327\201\255={\242\036\276\270Tn\277\323a\313>\327\236\356\276t\353\303\276\215\233,\277I\376?\276x\203\200\276\316\215\324>\272\366\207>h-\225\274T\335S\275K\264\216>\365\004d\275`\333\202\276[\234\232\276\276\235s>\275\004\305\274d\336\026\275Y\236\343>`\367*\276\\\364k>\3252I\276`\202\240\276:\211@>\266\235\201\274\027\327\032=?\341t\276\244z\335\274+\034\316\2767lN>\275\371e\275\263\031\306\276_\022\305\276jk6>\344\032\204\276\nJ\025\277\231;\376\274\310\3432>\035\277\323\2731\006\207\276dp\215\276\026t\n\277sz\217\276\007$\024\277\340\014\263\275Z\315\024\275\317Py>\2505\000\275<:\201>\025\036_\276\371\207\266\276\224)\204>\245\331\334>\205 \254>\326\221\227>\264\356\351>\371\013\221\275\244\276\033>\237j\026\277\016\373\250>\223l\351\276\202a\005\277[j}=\215F\360\276i\361\247\275\232{\220\276\325\262\227=1\273R\276 /\250>\343\267m>lj\025>\322\334\354=\205\031\004\276\232=\005\276\242\213\254=\344\226B>\035\212\261>\035\2772>\364I3<\\8$\277IiO>\307\366\273\276\253\306\016\277\207\311\334>#\3469?\336j\n\277\036%\321\275\'_i;\242\256i\276\307m\262>\306\250&\277\350\204\257\276n\356\250=\224,.\277 \370\370\275\037\367\312\276\327\022)\276\240\231>\276\320I]\276\351\353\305\276\177{H\276\307\006\246>L\001\224>\3209+\277\355\277J\275\t\377\261<\037\276e>\360G\354>\214\000S=\\\307\221=\340\230\035\277\354\364\337=\217\021\237\276\371\350\276\276\270\376q>\342\235\005>\325\313\200>\211\310\203\276\225\263b\275%B\374\276\202\3337\276\356^\251\276\354\263\214\276\240\320\374\276\353\226\242>\274`^\275\212\272\332>5\027\247\277wO\343\275\026\324\003?j\321g=G\035\364<?p2\277r\317\334\276\366\337b\276#\273:?\236)\261\274\017XG\276\204\355\230>\273\033\230<\266T\020\276\206\273K=\255;;>\034@>\277\362A\221\275\375\243@\277^N\221<a!M\275z\240\224\276|n\t\275`\342\223;\275H\324\276\250\213t\276\210\247L>?8\000\277\217\021\034=v\304\335=\322\354\304\276\276\3743>\366Xn\277CV;\277\177{\207?\212\353\357>j\263\355\276\310\030D\276G\254\230>\371=\001?\364\340\">\333I\343\276R\265\241\275%\213]>E\255\267\276h*\000>z\243\000>@AF>2\256\203\275\025?\322=\307\214\037>\025D\265\276\306\224\212\277s\031+\276\273\262\026?\361\376\271>u\361H\276A,\352>K\031}\276\220\230B\276\240\t\t\277\244\375\347\274<\224\255\276\026\'1>\024\360\004?\324\2008>\005~\370>\r&\315\276\374=K\276\270\314Z\275U\351h>~\213\223=um3\277q\031b\276\031{\214>\373\3638\276\375\202K\276_\304\272>\222\255\242=5\347\324=\265\237\307\275\303%\r\277B\034\346\275,\023\250>B{\n\277\233\021A>\026\200*\276\016\345\311=\375\004\316< r\022>\271\006\313=\251\014\035\2760)\301>i\322&\276%\021\276>\2719\n\277p,\n>\347\005\276\276\305H\365</\256\340=\020\316U\277\371W\035>\247\363\201>8\026\321\276\302*\335=\363S\324\274\033\251\202\276\365\033 \277\341\270^>\304\315\314\275\335{2\275\224z\356\276\200\315\r\276\337\334\344\2759\020\261=|\250\365\276H\272q\275\225\315\347\276%\241\233>\315\262\024\275R\255,\277-\346\262\276\212)@\276-\256U\276n\245\205\275\323\301\251\275\031T\033>\210\t\002>O\207\223\276\321\356\225\275$\210\253>\302\262\030\276X\305\276>u\323\030>\365a\016\277\036Z\216\276\2077;>\253\231\375=\274V\244=S\303\360>\276\224\303>\030v\332;\207Q\267>\037\346\216\276\010\262L<\220z\230>(\375D>)\261t\275\032\305?>^\262U>:\261\215>`k\263>J\220[\276\017\220e>\374\024\264\276\300\316\250>\"\005\246\276\030f\t>i\366L\275^)\247\275Wf\'\275Z9\205>}5\346>\363\376\220\276\302\316b>\270\222;=\347\010\265>sF\375\274\333\032\372>\226\200\035>)\274\237=\317*\"\276\230\0233\276\3656\035=bX\316\276|\365\341\276q[\024\277\324\313+\277\367\031\037\276\256+\230=j\026K?W\235\002>d\225.\277F8\220?\227\017\024\276\203\324\267>\3234I\277G\232\223>2S^\276\376Lj\276\025\206\357\275\031%=\276U\235\213>\302\360W\277\001\234\303\276\017u\205>.o\020>~.{\275%\351\236\276,\376\340\275\321t4? \227\201>q\241\221\276T$\366:\356\362\237\276\245$N\276\226\221\376=\021\356V=\264V*\277\267\222\303<l\332\034\277\013{#\277\301n\023\277\341\352\220\276\251\353\027\276\017\005\343\276+\033\004\277\243\231v>\016\236\275\276)\261\221\275\\<\313<|r\331\275\271.\225\276\006\334G\277\037\270\202\276\324\3632\276,B\273\275\177\021D\276\253=\017><v\025=\377\177\352\274\236m\265\276\237\022\251>\340\215\023>3\210\234\275\220$b\276\341T\016\277x\242\267\275\271\236\207\276\262R_>\003\231\007\276@\340\032<\177\032\031\276uA\215>\301\202(>i=\354\276\240Mu>\371\323\256\276?S\246\2762\003\014>i\361\021>\024Z\217>\262 \n\275\215o\314=|+\230\276\270r\275\276\361\034\261<\257\200\227\276,\0003\276W\260\200\276\201er>\304\357[>\022\333\010?\372\016\000>V\0323\277\2122\003;5\337e<I\232 \276!@\"\276\370!\023\276m\201\277\275R\217\255\275\220\243\270\275/\272^\276\035\221\251\276@(\275<Tp\254;\3616\333\276\326A\256>fhZ\2772\273Z?)x\376>=F\000>>1#\277|\203\331\273E\276\331\274#\315\006\277>\234\t\277\237\030X\276\201q\214\276\311O1\277\033\025N>U\266\301\276(8\225=\373T\252>~M8\276\226\220\203>\366\006\235>SL/\277\234\330\263\275Xi\n>\323\262\'>\213\345M\275\260\243U>\257\334\205=i\320\326\275\256\324\266\276\373\006`>e\227%\277\261F\t\277]\274&\276\000\265A>\223\257\277=\275K*<V 9>\252\322\213\276\236w&=\177\365\271\275\351yy>\227\306\206\276%<-\276\204\026E>9\010\203\276\031!4\277!\324\036>SEA=\237\341\327\276U\020W\277\326\003\243\274\204\241*\275\365\274<\276$a\375\276<\204\371>\211\345J>$\026`=\371GC>\234\221\242\276O\224\206>\373\225\320\2768)\026\276\262f\325<\314\"\252>\351\243A\275\t\206\326\275\001o\227\276!K\313\276\362\207.>w?4\276\0312b\276\356\364\005?\301W\206\277C\234O\276\001\230\243>@\222\254>\371\037\034\277\206\334a>\217\344\377>\305f,\276\013\373\207>\246,\360=(+\306>\210\361\036\276\316\372\314=\331A\024\276t\037\273\275\255^\273>L\300\207\276\302)\017\276\357\036J\276\351\006\251\276\323o\010=8F\207=\247\223\317\276\332_b\273\233o\\\276y\377\210\276e\3728\276\230L\321\276\010\347/\277\352\235 \277\023JY=\317w\252\276\302\377\032\277\024\251\026>\225#\r\277*\305\370=bg\027>bP\313\275P\245\347\276\362r\236\276\023\224\307\275$\255\373=C\035\204\275\013\242\r\276\353(z\277\023Mm=\035\010z\276;\343\004=\013\020C\276\371Rx=\307b\274\276\244\206\"\277\312M\325\275^\022\264\276\262\243\t\275(\2534\277\331/6\276\334\372\362\2745\010\264\276\241\247\277\274\335\275\345=\266d\026>\001\204\232\275\267\305\322\276+\210\250\2765y\277=y;\037\277\031\240\027\274\352>\356>R\323o\277\345\322K\276\332.V\276\2227T\276\356CS>W{\213>_\230\373>\035\245\270>\2712,>G\241\000\277l)z?B\263\276\274t\346,\276\376\364\237\276\221uI\276\361y1>\327M\322\276\022\273\240\276\273\216\300>O\266\021>w\363\000?\241\310\216>\327\247>?`\0021\276M\303\276\276\275\023\272\275`\016\374\276(\032\007\277\205[\226\276\335{\355=\201\202\377\274#\316\375<\007n<\274\035W\370\276\035\220\321\274\265\373\234\276T\003\370\276<#\214\276\244\322k>\021E\225>\211[\212>\365L\334\276\277L\335>h\266\244\276\205g\225\276A\373#\276^@\226\275m$\246\276\307J<>\024\331\300\275\006\021\360>\356.\336=\200,u>\377L\356\275\222\216\021\277\377\213\272=HS\317=\327\026\231>.EC>\302\022f\276\301hB>\252u\213>!\007\230>\351\320\021\276\222\2607\27682\375=x\356\240>\001oH\274\034\352\220\276\317\211\033\276P\305d\276\236\354q>s\216\025\277\034\342\300>)R\n=\224\001`\275^\261\024\276\020\214?6G=A\276\367iS<\177h\310\276\035\262@=\357=\002\277\336\342\020:R\007\346=U\244/>\206\374B\276C.N>r\301\234>c\244>>\3761*>\351&\344\276f\373\212\276K{\003\276u\222\321\276\245\373$\276\'|i\2769,\220>2\365P\275<\310u>=\004\222\276\035\030\007?\374\001\325=\335\337 \275\262\355%\276\216I]\276\373\033\370>\267m\225=ll\014>\316\020\333>\314\0214\277\006\337\227>Y\251\002?\200\r\307\276\227\334Q\275\223\240;=OD\237>\235\246\006\277j\242\223=\303\313\216\276u\344\353>\303\324\226\276\005:\320\276\340\266\333\276\354\266\270\275gH\262\274\210\026*>-R\365>\244\267>>*o0\276p\332 >\373\2365>\000\362\316\276\247\377\235>~\351d>\211\256\250\276\254\333%\277\257\335\303\275.|\241\276\302\030\376\276\224\014\337\276b\006\375>%\002\212=\3225/>\307Z\256\276$@\006>\324O\017\277\315{\273=\r\250\217>\036c\241>Ph\263\276\027\377\002?\003|\375\276@\'5?k.0\274\030\213\223>\004\332\261>\327\210M?\354\202\022?\023g\373\275L\017X\277c\177\001?a4\215>\243\001\200=!\244\345<[\n\224=U[\234\275H5\372\2747\326\240>\240\313\203>m\241\241=\311\255\237\276g1\271\275H&&?R\220\271=\300\340\006\276\014Z\226\276\005\224\001\277\313\027\305>:\014\370\276P\215G>\241l\313\276\251\004\225=.\213)>\272\232\345\276@\2671?\376\215\305=i#\301=\351\353\002=\355\342\265=W4\316\275\374\216\205\276\361t\005\276\360\322a\276 %$\27674\363\276\311pS?\355\347-\276\356ws\276x\271\201=\323?\004\276\376\320\007>\266\363\241\275\335\201\310>\267h\013?\332\007l=\300\017\245>|B\305\276B\2620?L\231`=\2119V\276\337\372\227>\246\311\374> ?\373\276\263\031@\276\311,\232\276\207\t\313>\362\207\022?g{\251<\321\024\373\275\334\271\005?\344\271\234\276>&\202>\300\020\007\277\346\003\"\277\260\to\276s$\347<\005\000\362>\356s\027?2\017\354>\220\016\300\275\361\010\252=\260E\032\2779\211\'\277QZ]\277\232:\211>\025\223L<y\310\325\276\326\230\232\276q\260\261\276\377\017\262\276\373\277s=\313\357\027\276\235\355;\276#r\023\277~\354\312>\241\r\030\273\t\336f\276\312V\230>i\362\227>Lvf\276\027\361\036>\242\340M\277\270-\022?\242\302\246\273\3216E\275\340AZ\276\007\360\331=\363\335\003?\324dl=\227R\220\276#\201\325>\306K\254=^\203K>& \304\276\271\276\235\276\351\227\203\276wA\250\275\200D4\276\343v\217\276i\327Q>\3549\264\276\365\302%\277\232h9>\204;\262\274\2001\231>\307\305\230\276\031@]\276\266\021\030>|\246\322=\374\314\263\276d\303\035?\270\217\302\276\324\\!\276c\270L>;\315\367>d\232r>[\247\301=8\227J\2767\010\370\2741\314W\275\"\354\262>na;>\373}\250>\317\306\343=t\226\243>\325/\223\2763IV>\216\211\335=)\350 ?c\353\010;T\030\320\275EA:>>\274\274\276\221E_=.n\031>\247\245c>\340\'\304>\352t*\277\250\332\262>8\244\352\276\0016N;\323g\027\276\003\302\275\276\353\\\337=C@\212\275j\246\231>\306\261\326=D\270\031?\364\214)\277\325\203\230\275\334\206\023\277\036\337\340\276\236\372K\277\201\r\317<\233AF\277\235I\311\276\217\350\207>m\276N\277\\r\220\276\215I\020=\3049X\275vV\302=+#\217>^M\352\276\030\003\233\276\347\002\221\276\256-\230\275\300\\\242\276\316\003\206\276e\335->n\333\n\277\341\200U=F\002\366\276\247\331\335\275\374\"5\276\320\346M>\230\206\250\275\002\231?=\221b\265\274\'\310\212\277ba\227\276<,\001\276\366\307\026?k\035\301>pq\244>\222:\315>f\204\306>\027\275\230\276f\033+>Pe\324>\230\337\212=-;\336>\377\302\177\276\201\307\226\276r\356_=\022F4\272\331\203\214\277|\230\362\274\234\336\204\276P\035\274\275\302\n\372\276a\220p>\307\361\321\275\201\000\024\275\340\033N=\255\247s>\r\0219?\242L\235>\370\037\224\276FN\242<\350\2056\275\331>L\277\3004\017\277\370\300\023\276\241ug\273\326%\326\275\205/\302\276\017K\364=R\357\363>tT\361\275\017AG\275I\210m\276K\263[\276\374@\207\275\375\016\207\276qc\246\275Wt\227\275l\201\004>Eh\031\277\334\376N>\r\010\257\276~\302a\276\266X|\275\234\267\377\275\033\354\231\276~\2145\276<\340j\276\224\324\325=\201\322\032?\2606\360\274\033u\307\276\340\371\210\276`T\330>\221\355c\276\352\355V>[\220\013>\222l\213\276\314|B\276\300\3139>\252\317\260\275\242\215\275\275K\001 ?\330%\204\275\315\352\301\275\373\343:\276C\263\236>\024=\205\276\t\2411\276\203\3359\2760\3552\277p\375\270\276Z\347\372\275\275&\275\275C\252P=j\265\240>\333\206\355\276\275\234\270>R\252\207=~{\236=4\230\260\276;.\n\276\037\205\307\276\033\227\220=\004\241\330\275\373(7>\334\0163>\262_<\276\200y\373\275\242HZ\276\252~\212>\235\225q=`\217\263>cq(\276\277\237\207\276\271S\377\276\266\"p>Au\212\275>\000\316\275\316\212\177>\212uT;Z\026\250>\000\305\264\276\246\302\223\276\306\027\353>\255\020\001\277\273T\013\277:2H>(\257B\276\006\017\350=\334\340\247>l\337\021\276Z\232\237>\342\006\031?\365p\227\276P\227\261>)\3165\275\331\"\316=P\343%>Z\365\'>t\321\226\276Hz(\276\225\001\351>f\243 \277\332\320\371\276\372\265\230=\271\344\266\275`\356\222>%\331W\276\337\215\234>m\257\211>\222\254\025=W!\210\275c\022\216\276\335\023\336\276(\3102\276i\301\022\277:qI\275\301.\350>^\255\241>\032N,\276I\022\244\275t\266L\276\336h6\276\tI\350\276\200\037\316>v\307\202>v:\335\276\330M\002\276\234\202\303\275%7!?\247Wm\277\353E\244>\021*\027\275W\324\010\2768\350j>~Y\311>\302\255X>\177_\216>:\023\272>CG\010\276!\024\211\276W\267\216\276A\024\000\276sl\n>\320\363\206<\260\025\301>I\n\204>\235\250\263>\256\244\r>\220\223\274<[D\332\276G.\027?m\202\204>\036\025K\276Ub\235\2754\376\t\274Lk\366=\275\322J\275\275\371d\274&j4\276u/6\276\241\301\360>6\334\376\274\220W\336>3\334\200\274G\353\354\275\376\nC\277\352\224\212=V\002\222\276\3569\017\276\2147\354=\023\341n\276\236\346\026>\210\220\224\276yCb?\177-\024\276\273\200\217\276\021w\210<\240\224\027\277E\251\203\276\3171\"\277+X\037?E(\211<$k\\\276\037B\346\275\256\n\343=\207\227\345\276\220D\253\2757\030\023\277\177\332\334=u\352A\276z\010\325=\"[\276;\234\014\340=3A\007?\3109\037\276\357y\037?\004\246\340>+\242\021\2750\206\216\276\256}\367=\3427\024\276\375\222\001\276\342\036\214\276\233%(?\211\247;\274c\016n=<\270\271\274\'\211\000\276.Dp<\310i\216>\025*\333\274\272\202\250=\364\003\372=s\342\214>@\200\203\276\234\267\352\276\211\340\304>O\345\346>\304\211w\276\024j1\277\300\t\221;\275\211S\277\3414\014?\276=\274\275\207\007\310=\272\214\010\277b\276\010\277!\311\312>\201s\343\276\372\001\347>\236\360\275>\357}\273>\235\201\304\274t\330\030\276\267|\326\276\"_v=\305M\\;^!d>r9q>/y\000?\245\222\274>N\035R=\215\211>\276\332\034\253=\247/\326\275\251w\367>\376D\"\277\307O\352><^\255>Fc\276<\336\313\275=[\356w\276T\265\226\276\341\017\201>oe\026\277\205o\035<\304\371\250\275\006M\031>\271\013H<Hn\214\276i\362\376>v\234\013=\355\271\325>\016\300\013?\250\204\310\276\037\374@>\\r\245<\331(\004?m\031\010\276\025\032(\276\023\217\276\276\025N\345>\314\035 \275W\221\255>\252A\023\276Ux\230\276i\351\274<gP\207>\346\332\243>\032\343s>\360\237\324>\254\212M\275<\253\243=?)\337\275\254+\357=\r\323\036\275\362\305\214<\323\317\231>\2713\255=\1772t\276#N\036>t+\200<I\3170\276\257U\321\276~\257\241>d\333\363\276\240\373\">\347\362\310\274\315c<\276\301\273\202>[\267\257\275e\326a\276\0069\300\275\237G\'>4\224\010>T8\274<H\245>\276\336P}>+\344B>\206\361z>\367\333\346\2757<\242\276+\212\312\276\033PG=\234\302}\276l`\316>\241R}>\206\325\r>#m\n=\207.\020\275\256\361h=\205\264\211\276-9\335>:\244\003\277o\0270\277\003\314V\276\356I\323\275b\337\031\277\017\300\201>\203\374\302=\272\031\014\277R-\217>Q\205:?p\245o\274}\366\226>\231\003u\276T\320\014\277EF\271\276R\306\264\276J~\230>\304WL>v&\204\275\032\340\304=\365\005\353\276\366L\346=\305\371\264>\025\207\013\276|G\301=\341-B>\361a\370\2766V\t\277H\257/<?\2471?I\222\314>\353\253x>\253\346\361=U\254I\277\265&\276\276\230A\201\2767\t\031>nv\320\274\234q\346<\373\2737>G\331\023\277~\332-\275\304Z\\\276\231N\357\276\344P+>\0250\313=K\210\005?zK+\277\001O?\277\205\305\353\275+y;>\342z\375\276\271h\251\27502\356\275\265s\022\275`4\344>\376\331\225\277Eg\327\276\235]\204=\240pD\271=\224??\374\265;>I\311\202>\273\213q\276\000C\233=\365\220\010\277\221\216n=\234\375\337\276\204I\t\276\235\006o>n\034\037>\276A\010?#\237\246\276\325S\323\275.\234\034>\274\267\003?\232\322\233<F\225\207\276\261\344\004\277\007G[\276*\340&>\377\n\203>\002\267\366\276lO\217>T\237\227\276\362\311\244>\347\275\235\277\250\204Z\277$\231p\276\235w\344=+\222z=CL4>\224\037g>\221\007\206?)\333\276\276D\027$\276\237x\001\277\235JP\277N5\341\275\241\362\222\276\3378\227>P \254\276as\000\276\207\236&\277\217\226\n\277\037\243\232\2764\272\321;\344!t\276:l\217>%\324\216\276\212S\366\276\200+\365>\021\272\334=y\004\236\275e\032\375>\267\374\237>p\274\005>\003:\244\276\360\215`\276\005p\274\275\207\326\024?\236X\244>\240\340\312=\272`V=f\260\013<\315\260/>\263\026\336>\242v\202>\331eX?\210@4>Dj\244\275M9q\275[\227\221>ShB\276\221\034-?=\333H\276\207\345\335>\3315P>\203F4?M\375\324=\242\2638>\223\216p=\323\016\250=\225\317\366=b\320\356=&\023J?\360\251\326>ge\362<=}\310>\342~\332=\275_\273\274\340.\354\273\020\207\r\276u~\211\276\305\253\236>Qd\240\276\374\202\002>\334,1?\2616\302\275\021R\020>\312\035 >ns\017\277B\200\035?H\031\332\276\252*\206\2765\0354>\303\362\217\276\370!>\276\367\207\260\275C\225\242=Xq\226\275\326Dd>\377Eg?\215\310\215=\377\274\312>C(n>S.\243\276\332\227<>Z\346\322>\320\272\274>\320\227\032>\365\034\200>\326x\213\276W%\006?\\]\360=\202\324\372\275\001\353\252>z\304\244>_\204\221=\356A]\272p!\351>I\313E\276y\353\021\276\0043\266\275\336\355;>\335\270\307>\305M\227\276s\216$\276=\024-?\343F\364\276\001\204!?\267\330\230>d\352\363>\317\247\020\274\305c\375<5\256\217\276X\002\232\276\021\\J\276\302\231\260\276\013\237\256>27\203=\323\317\024\277\301<\327=\0066\252\275A\374\244\276gH\000?2\203b\276\375\332r>}\273\202>\017\340\230>\274\263\'\276q\305A\276\250\033\212\276\254\337\250>\377\016\342=(W\225=&\332}=a\307\360>t\006\314>6\252\205\276G%\202\276\370\223\213\276Z\003&?\364\023\236\276\254\366\300\275\210\303\375<\251?\371>7\365@>F\222Z\277\226\024g=\220\252\006?\227\037u>q\227i\276o\202T>\"\327\345\276y*\007\277\016N\003?g+ >\027i\220\275\327\\\376>)\242\341=\345]\327\276\211U\305\276\323\313p\276\305qh\276\265\324\216>\317\225\023\275\334\014T\276\254\240\345\275Y\344\365:\327H\334\274\330\274\003\2762\306\007?hT\344>\367\350\001\276\254\357\007?P]\372>H(\302\276\203\330\031?\257b\306>\3609+?\030\232\246\276\233\2548?M\036\332=c\237\257>p\001\327\276\250&\006\276\372\177D?\230\324x>X\365\212>\266#\305>\nb\253>\372\215x\277~\030\327\276\312\275\003\276\023\226{<\216\030 \276\315o\313>zv=\276ol2\276N\213\010?(\262\036\277;o\010\2774\033f>8\315\264=\377vS\276\251,\266>\362\034\322>\213\224\035\277\t^\203>\336\205\233\274\252\322\022>&f\257\275\006\030\220\276^Q\315\276\323\347u=\332\374\364>l\332\313>\227p\005?\346$N\276\234\302+>\004\013T>\307\200\365>fIh=-\030\377\275\206$p>\033\034\203>\217?\217\276\241At\276\371TN<\010\227x\2766\344\271=\226M`\276\341{\334\275\363\343%?\006\232S\274rE)>\225A\027\276\206\326\003?7\213\274>\317\331\364\276|&\331=p\366\373\275\253k\323=w\355\203>\345\335\t\275\262%\177>\263\361k\277\311K\265<X\332\357>\237\222/\276\027\230&>\356m\231>\346\260\275\276\352\251o>\241@\270\275K\235\227=\375\2742\275\002\224\032\276\202!\323>#\240O>A\205\307>2\025\326>\367\241{\276\257\323\037\277\237\265\355<\366DD>\330\265\004\276-9\027?\001\2171?\026J\356\276o\215O\276~\002\353=\0203\256\276\202\264<>\316\"\326=\266BJ?\377\326\312=-\205\322\276\306\261#<\347 \315>c~\305>\252\003\370>\033\375\266=\3630\'>Z7\277>\237\333\335=\242\332\006>\344\350\201\277\026v\346\276V\231(>\362N\252\276\372\'\376\276e\202\240>\370O =|F\004\276\364\0071\276\004\007\321>s\362\"=\222\"\007?\346\021=\275\037\262\240\276\2504\340>\244\372\'>^\276\371>\245\242\226>5l\236\276\034\010\246\276,\357\304>\t\304\306>\032\245\336\276\244f\270\275\236\2769\277`\345A\276\226V\360=\336\257\354\276\344I\371\276\311Y\271<Z\037i=\004\343\301\276J\020\014\276\221n\023\2772\366\262>\220\037\330>z\010\250>9F\262\2769\357\236=\322\021\222>\250\370\245>\241\340\265\276\000\\\200>\366\315\202<\035\003[>\327Y\003?\362\255j>\224$\222>\252\365\300>\204sB\276\0072\005\277\376\013\211>\235\362X\276\031q\031=\034\310\232>\245\3037?\245\227\357\275!g>>\234\351\267\276+\265z\274\373a7\276\230]t\276>\262\331\2768\213\226\276\222b\365\276-}\320>\256\034\242\276L\"\003>b+\253>\262\272\273>\273\243\023?<\223\010>\311Z\255>\000FL<\250:\025?\336\030\306\275\370\357\262?~\240`;\247#\264>\364<P>\017B\017\277+;\323\276(<C\276He\352=\0003\240\272\303)\204<+`\240>f\226\003\277\232\366+\277V_\325\275\261\213\214\275;8\252>\014~k>|\264\306\276\375E3?x\376\276>-T\257\276\234\025\245>\305\316W\273A\177;?\300\037\220>W)\331\273>#\334\274IQI=O]\023\277\344^n=|\ri>\227!\025?\020\344\260>\306\301\351>\374#[\276<\207O\275=\272\'\276\312\2539\277\217C\010?\316\246\230=H\215\203>\323\344\366\273\264\365\341;\336aq\275\357\354\214\276p\333 >\246\205\r?\361\247A\276\340\334\n>53\247>}\177L\277m8\022\275\021\224\232\27684\177>\037h\332>\217\254@<1\271\305\276\321L\r>\"\257\023\276\337\234\315\276\235\177\265\275\255z\014=\2046\272>\263c\017\275k\016\331>\333\335\203\275\037\375<?\027P\021\276\021\237\247>\254\r\243>\217q\245>\232;\201?\340P\237\274\323\306\322\275\352\337x\275\232m\313>Gu\275\276\331i\273>\254\313\226>\371O\230\275+\303\364\275\3774$\277\200,\337\275(~\031\276v\037\240\276\223@\215?\216 \021\277\024\210\224\276\375\212\362>FI\334\275\0031F\276rM\223>\273,\033>\231#7>\266\233\357\273U\322\354>i\026;?\225\354\223<\r\241\204=\026\177\337\2757\200\305>\243Wf\275\364\212\324\276V\356\247\275\346B\026\276\267\277\257\276\260s8=d\336H\276p\332\n\275\026S\036\276V\372\330=\277CD\276\223\261\367\275F#q=\013\001_>\0320\303=DJ+?\263\026\264>\r\354\311\275\276H-?\257\016\251\274^od>Ow@\276\370%\225\276N\317\242=\\\356\271\276\224\277\201\276\222Y#\275\010l>>\031\201C?\027f\361\276$\300y>\360\223p\274\205<\350\276c\352\304>d?\217\276a\244\204\276\217]G>h\322\235>\0028\033>\264\227\277>\033J$>\000\217\177>\267\341\254\276,s\003\277\214\203\006?\204\207\030>\256X\221>\365\354\014\275\274\341\243\276\306\222\332\276C\357\313>\317\014\021>\005K\030\276\350\221A>?\254\017\276\320w\240\276w.y>\213\204\025>\007\304\320\276\371m\026\276\00044\277o\233O\276#=\020\276c\213/\276\351\033\271\274\336\357/?N\0160\276,\375/=\345\305\306:\016\353\217\274\250\221\231>\213\356.\277t\351\374=\2715K\276k5w\2760\224v\277/9\252\276\355J\264\275l\'\267>i2\r\275\013R\214\276\323\370%?l\253@>\341\2451>R\223\244\276j\374\224\276?\277\304>\342\"J>R\005\010\275U \t\277\324H\030>\005\372\215\275p\024\036\277\"\2334?G.\221\275\300R\372=/p\265\276\314\342\\=\3247\311\275\335k\260>\371\356v=\2651f>\224\246\306>@\212\211>J\341\001>\006\371v\277\337Z\177=\324X=>e\377\241>\253X\237\276\'\321\255\275\213B\221\276\347\367\254<\235I\344\275\253\245\361\2754\027\322\276dP\350\2769i\01396V\306\276\255\263\335>\327\r\t?\036\017\013\275\245\210\t>\254NB>]\317\227\276\334\350\257>\244$\014\276\000\274\002?:B\010?\2213\n?\177\223(\276\241\275\215\276\325\356\252\276{Ao\275E\352\023\277\022@\336\275>\374\326<\273\020\333>X\351^\276\355\277\352\275,*5>\335\t\267>\376\312\237\275G\312\233\276h\212\322=.\246\336\276;\256\010\277\007\236\310=\237^\231=\341\355\331>\317\332=\275\272dp\2761d\346\273\265\300\270>\360\264\375\276\021+i\275\271\201+\276\200M>>M\266j=\310\240\335=\362\347Q\276H\301\020?-V0=L\330\266\276\253@\016\277[\311\300\274r=+\277\327v!>NX\315\276!\306D\276\202\245\001><\256\375=\3553\264\274Vo\275=\315\322\031\276\343\351\231>\022\210h\272\206A\275>\321\321\327>\345>A>(L\357>\260b\302=o*%\277\274\023!\276S\006t\276%\221\202\276\027\035\331\275\367\275\347\274\024\002\242=\006@\000\276]\0272\276\212\3732?\330\232\365\273\021l\255\275H\005e\276\016\323 ?\036rW\276\305\352\240>\3535\347\276\254\026\306=\025\3158\276\347\225N>\321\375)\275\234\303\257\2752u\227>\310\032\260<\261\241`>\320\236J>\017\376,\277\375M\032>Z\322\002?\243\322\303\275gO\000?\036-\350\274#\333\001>3\000\331\276Ibb\276d\363>\274\225\352\255\276_6\020>\330Y\236\276\265FE\273\007zZ\277\001\272\241\276\342\377d>g\0221;Y\030\366>\325u\362=\214\310<?J\353\233>c)\252\275Ov\233\276\345,I>\026\222\004?\200\232\367\275\242|\262=D\226\254>P\331\332>\240\177g\277\250m%\276\246r\276\276k\265^>\314\204#\275\313\361>>\037\360r>Y\201G=%\274\\>\330\344\217>\260\266\207>(\205\245>\275\233\350=\377\2370?\302Y\247>G\203\226>]\244\010\277\256i%=\017V\370>\370\204\013\277>[U=M\316\215=\234\262\344\275\017\207\n>KU\200>\332\212\r?\305Q\017??\333\245>\364\261\216<\227\301;?*\336\343>\036\273)>\037\3059\277_\260l\276xyB>\002\2230\277Y\316{\276\337\377 ?\213\006\027>\370v\353>Y\302\026?\352\347\215>(kE=^x\331>\201\236\264\276\327L\343\275\010\301\350=[0\305\275\375\313\210<\234\320\032\277\200A\024?X^\244=\000\003\210\275zsz>I\313\274>\303\n\326>%Q\r>h\303\204<\272\346\356\275\332\316\r>\304\336\264>(\370\023?Y\232\305>\273\251\017?}R\374>\311\236Q<\303t\276>\017\335h\276MN\273\275\014\0038=\376\237!>\370#\371\275m\022\014?+7\255\274\236=\334\275Jc\277=\3240N>\302&^>\250\264b;zz\213\273\216\\\226\274\227\013\341>\324\212m\2760\006\002?\331\2010?\257\002\245?\341U\266<\326\312\265\275_\002n>TT\353\275\212\303\273\276\325\277\244>i\217\231>\347r\332\276!Y\264>\350H\301=^\n\023>\021\002\276\276C\270\360\276\343N<=\226\321\r\277vf\365\276\\\004{\276T1\r\277(\0144\276O\227\206>\341\360\232\276\237\312o>\365.\371\275\'B\330=\324\027\336>\326O\220>\010\326\t?\010\341\326=,\244\017\276\215\325\220\276\210;\006\276;\256\036>\310\245:\276\006\230\302>\254\352\010\276w\342\204\276\207\224\265>\033f\274\275\354\330\233\275{\026\346>)\3763\276\316C\226=J\277c\277\321Q\334>\234c\274\274\262\266\r\277\r\222\026?7\314\334\275v@d\275\365H\010=\340\362\274\276\237\260\210\276D<\257<Zc\241\275\240)\243>x\333\370>Jh\246>\177)\307\276\235\177\030\276G>\315\276\235\177\263=\311\343\317\276\377\315A\276\265\251\242\275\006?:\276B\342\351\275\016\236\024\276\036\266\362<CP\211\276\375\343K>,\n\030>\316\311\237\275\304Y\r=\331\330\225\275\340\373\326\275\357\341\314\275\347b7\276\n\344\t?\306\352\001\276\251\035\345\275\302\200\362\276\024\034\207=\004vl\276\312}\'\276\222R\244<t\263\312>\327\274~\276\300\232\027?\236\377\t?\251\360\023\276,\215d\276\342\370\235\274\007\3004>\330\206J?\230\036:>\320A\244=)\260A\277g\313\t\276s\377\333\276\257\310\375>d\'H\277%$\"<i\322Z\276\\\006h\277\207\261s>\246\374l?\204\016\310\276.\266\"\276\246\331\205\276`\276\232>\356\333\006\277^\030\033>:\306\017?\300q\260\275\304\021\024\275\214\037 ?\tX\313>(v\016\276\204\245)\277\201Q\333=\363\224\255>\035\273=>\007\374\340\275\355\360S>\004\363\232>\225\366\013?B\372\031?\0165\332\275\250\2521\277\371\247\304>\3512.\277T\321@\277\251I~>/\026\201>\325\200A\276\3578\231>;\342\374=~d\327>\014\253\035?\215\377\020?\232\376\036\275F`#\277\217Sj>\331\205s\276\302\306\361=\005\361*==\322\201>0\025\373>\035\023R\276\\ \376>F\005]=d\023\220\276\313\325\014\275sX\330\276A\344\223?\302W\031\276\241\213\311\276\264W\260>\365\367\'\277\207B\344\276\003\373n>d\0230\276.d\375>`\005o>\372\336O\276\227\325\207\2761\265\213>\252\377\320>J\327B?\234\217F=\206\311Q?{_\307>\321\245\324<X?#?67\327\276+/L\276\330o2?\301=\252\276\326\305\372\275\"\021K>\265D\005=\201\235\341\276\213\371\222>\222,\347>#\212\033\276\010E9=\223\210B=\010\277\222\276\252:\215>?U\360=\276\207\203>,IR?\310\351\246\275\021x\256\275t\275[>\t\341\372=8\314v\276\350J\271=u@d>\004\t\315>T\211\230>o\263\364>O\224\255\276\3766\017=.\322b\276\3539\323=\r\305=?[\250\037>fK\345\276\377\022\022\276c\037\243>j\322!\273\002\311>?\347 2>\302:\304\274B:\307>\020\337o\276\034\324o\276J.\355>\223\001\036>\206\005\306>\311\000V<\027kw=s\367\004>E\326)>\035>\262\276\256\326\256\276-<\010?\204\267\230=\341\343\260=[\250\366>;M\t\276\315\237\237\275Z\347\356>!P0\277\213f)?\243.|>\376\254d\2763C\302>\365\213\230>\365\277\306>4\007\350>3\366+\276\327\352\'\276\247\311B>\342\225\234\276\352\350\233>Nc\351>\210\220\313>7\023o>2\025\030=De\243\276\177\330?=S\255\220>U\230N\276\216\240{\275l\320\330\274\344~\204>\341\366\306=\273c\277>\177d\371\276\037\264\244>/qM\274\326\322\232:\325\354\216\276\211\022\021>r\275\376<\371\025z>\316t\003>\3317\014\275v\363\223=\236\330#\275t#\024?\206\267\306:$D\334=2+z\276ge\214>w\365\263>\252\177\316\275v\351\010\275\001-\332>\347N\320=\234\007\035\276z\034\r>\240C@>,\351\376>Y-/=8\367K\277l5M?\212\021\323\276`\375\303=P\222\205\275\0318l>N\244\205\276\217\366\245=\004\334\355\276\325\265\031\277u\"\365=\265\304\316>v\226\210\276\370\201\323>\273\376\r\276\310\211\030\276%\250\326\274E\3625>\317\316k=\251\024e>\237\351?\277\365\362\302\276]\237r=z?r\276\350A\311\275\314\034\236>\010\022\030?[\325\227\276\357\"\255=EJ|>(\224\270\276\245pU\276,\310\271\276]v]\275Y\003%\275\336\037?>&\240\270\276\237\0060>\032!U:\025\227\034\275\246\002c\277\323\363\"\277\335\226b\2763\230\213>K\014\372\276f\342@?\204n\3619\035q\023\276\311\341\036?\237\362=>\002\004\033\277\007\367\223\274\315\271i?n\363!?j\337\232\275\346=\032\276\274h]>\263\244\217>z^\244>\270\315X>n\301/?\200\363\351\274c`\257>!\325m?\342<3>5\021\371\2745\242\344\275\'Fx>\204\377\024\276<[\321\276>\352\302=Z@J\275Xq\312\275\023 7>\343)\344\276\270g\341\276\212%\265\276\010bD>\346\273\267\275m\333\255=\365\333\203>\250\345\000\277\300\030\202>$\261M\277V\274\214>\336\\\301\276I\301\304\276\331\373\227>>\"\211>\212\244P\277\232%\343\276\204\266\234\273\300a(?J\020\363>\326%\010>\374\006\325=\263e\267;\316]\\\276\003P\035\277\315k\017\2779\302K\276\263\353#>\375:\352\273R\033\222>\306\224\251<\007Y\210=\225\r\332\275C7@>\2663\261<1\0206?\016^]\274\234\374\232\276\243\267A\276\032T\010>\324\010\336\276\371\225C\274b\227\243;\345\3473=\246\357\246\275\"\210M?_\376\212\276\025?\334\276o\003\214\275\354\020\340>N\357\017?lH\250\276\341C\275\276\202\376\023>\001\363\355=Sy\001\277\323_$>\321\201g\277\247\300\255\275F\206o>1$A\277f\317\362\2768\256Z\276\307pq\276}x^>\3634<\276a\'\022\277\236\037\206>\374o\246\275\330J\226<\334\016\346=A\006@\276\267\"N>\240a\n\276\356(\030\277\203+\030\277y\332\007\277&\327K\276\271\356\220>\027\254\276\276\330\234\031?\200T\377=\354g\202=\203sO\276^M&\277,\317\267\276\303\324\214>;\263\241>\341\252 \276\312%4\276\034\204\330>\205\373\266\275\010}\211\276\367\026\341\276\000\374$\276D\263%?I\035\014\277\252\325\303>0\336\217=_\335!>\344\031y\275-h\354>J\255\212>]]\302>\2366\274\276?\225E?^A7=\021\376\306\275M_k\276\271\002\016\276h\332\013\276\250\211\315\276?\330u>\237\322\255>\374\200^\276\\\317\341\276?\253Y>P\002\\=\005=\240\276\270\232/\2765\204\326\276K\n\234\277\337\3223\277W5i\276\353\322A?MV\220\276J*\352>\215F[\277\r(\200\275\252!\021\277\260\203\202<\254g\351=\301\3562?\2430S\275:\214\372\276\031\177\252>#S8\276\327LE?\232\351\360>\000\\(?gn1=\304+2>F\365\201\276\366\315h>\304\313)\276\177\017\246>i83\275m\224\247\276L+\335=o\337\357>\250a+\277\357\242(\2775!\330\276a\326\245\276\0006\335\276v\217P>\200\250\204\276\t\350U\275\000\231\263>\006\333P\277)\334X\276\000,\264>Jy>>,\300\265\274\007\242\261\276\276j\013\277\377\231o>HAx>\250\227\206>\206\006\210>\307[\231\275\n\276\245<\236O\322>\302=\351\276o\030\237=w\267\306<\t\276U\276\036\333\206>_Mh>\021\\\233\275f\256\220>I$=>[\'g\276\014\241\300=\331ze<f\t\350=\";\271\276\205\324}>s\324\352=V/.\276&9\205=\265&\226<\377 \246>\302\356\336>nI\355\276\377m\201>t\310\233>a\264U\276\256\266\323>\'\300\347>nqN\277\311oa\275t\363F=\222\331\216\276\361\003\205\275I\362$?\014\226\"\276H\002\232\276\335\212\024\277\275\031\261>t)\241\276n\202\016\277f\375G\275\"\354\n=\221U\333\275p\223A\277\242\254)\277n\014\032>\304V\230\276\335`X\277x=\206>U\250\002>\\g\371\275\250\334\261>\327\033\274\276\332$\222\275!\307A\275Nk\347\276h\277\346>\237\202\026?C\024\215\276p\001+\276\014\017\013\277\003\265\334\275\350\347{>\246(\263>f,K>\324N\271\274#\202\262=\361@H\276\354K\331>M\203\265\276r\222\300\275]\251\027\275\344d5\277\253\301\321=\266p\264;a>\216\276Uh\023=\253^\206\276PV\232\277MbL\276\277v?\275K\025\233>\210\335\354\275T18\277\271\031\210>\314\034\337\2769\3003\277\'Z\334>\026\211\317\276a\220\017\276\246c\001\276\225\262\376<>\322&=\342J\274=a\327\315\275\246\212\316\275\230f\230>SW|=O\256\242>&\225\010\277\245\333B\276%M\202=\266\206-<x\330#=_\260\272\276\202\261\271\275\354\273.\277IF\270\276\351\004\343\276\350K\326;V\333\303>\2512\201\276u\344+>\314\303\217\275\271\324\227\276\270N\375;jVF\277_\320\036?[\345\241=h\233\341\276\364\230\345\276:\002C?^|\314=\243\270\371\274\312\'\235<\022\257\231\276\215\310$\276=\317\211=r\256\357\275\217\220\207>\031*\013;\220\312\'\277\344\036\232=\006~\304\275\022\237\276=\024\'\227\276Sa\200\276\344\262#\277\305\362B\275\362\316l>\311%\315<\254X\212\276j\225\007?\n\300\017>\245\017*\277Z\364\276\275{\225\366\275q#\326\276%\264\036?`\375\210>w\337\376=\326*\013>\302\303\200\275\310\034\224?\370?\204\276\375\226g>\340#A>\273\026\303\276\246\372*\274\342\330\234\277\233`\260=\313\r&\276\002\014\246\276\260\344E?\213\235\311\276[h\303>\340\322\002>\361G\027\276\265\264\231\276$i\'<:PG?\376\321\221\276\017T\200\276\230_\277>\357\333\321>\301p\214\276\201_\355=\000j\032>\362.\264>\227\010]\276\322\022j\276\216I\326\276\246\006\013>\267\005\211>\261\327\022=\233\013\334\275j\251\277>\232(G\276:UF\276\311\023\321\277@\347R\275RzG>\337\327\343>A>^>\025J\036\276\353\'\001>\340\r\314=b\024\204\276\300T\352>h\224\275\275c\215\222\277q\343\021\276GK\216\276\216Sm?\341k\267\276i\303[=S\361\361>5\013\232>\240\316@\277I7\205\275,\327V>F\343\225\276\213p\007?\215\034\270>\201\261 \277\327.\305>\255\310;>1$^>\337:\351\276\341\371\212\277\032[\326>\333\204l\277\226\212\311=\354\263<?/?\030\276\223r\017\276Xo\256=v\223\016\277\263\266\320\276o\020}>\007\364*>\023\251s>\351\016(\276`S\023>d\262\340\274G\367s>\247A\265\276\305=c\275\252Fc\276\346\005\350\275v\233Z\276x\253\356>5\226\227\275%\266\241\275\210\362\203\274\230~\254<\337\261\251>l^\345\276\034\244\t\276<\256\202>\363x\333\276\036\346\266\276\234\356\274\2756\031\350<\"W\204>\002\036\377\276\306s\277\276<\2552\276-\002\006>5\r\007\277\006\r\275\276}=\355\275\001\212\030?L;\276=1\267{\275\374\262\235>\005\2067\276\230&e>Gh\302\275v\017\n\276\227\t\311>\256\363\225\276\177\303\274\274\022\337\202\273\315Y\001>\276\013\354\2766s\225=<\016]\276\365C\"?\0223\020\275\267\346\376\274\353\246\007\276\006\342E>\265b\006\275?r%>T\272\213\276\360Q8\276\001\026\230\276(\353\311\273\357+\256>\364\372\322=,z\033>7\003\374>\252\245k=\00681>\262(\376\276l+\236<H\330\216\273\270\201\226\275\207\330\014\277\230\037\227>\221\362y\276u\356.\275\234\234\274>\311;(=\332\272\211=]\236M>\2629\301>E\327\202=\013\263\257>\001\263\030>mb\341>!J\211\276\036I\036=\244\035$?\031\025n\275\230\007I\277\336\333\236\276\243\310!>v\344{>e$\030\276N\261\313<T\341\003?\177\357\014\276\305\372b\276\230\023S=\327\031\340=sE\r>\264\233\246\276\273C\332=\210\375$\277\215\270\t\277\372Au\277\312\273\203\276W\227\320\276\252\000\233\276\355\016\005\276\366;%\276\342\037l?o\347\207=\234\332\201<\226H%\277\363\353*\276\233+r=l{\024?G\305\010?:d\023\275F\371\332\275\027\035\261\276\207G\177?\201!\331>\021<\271\276\271P\024\276\343 \316\275w\036\241\276a\303\244>\322\214=?8\002\220=\0330\270\276\3656\034\276Pk2>\022:\013?\224B\"\276\362\177*\277\t\267\234>LB\360<\353D!\277v\266b?\2244X\276}C\213\275M\214Q>\237\226\243\275P\214\323\274\200\332\345=\203\313\277\276\003\007\023?\221\223\242=\230<0>\275^\272\274\005\312R=q%\215=ZUG\275\211\033\262>\241\205\317>@\332{?*\331-\276\330\211\361>{f]>v\"!=\275\262&?\304}z>s\303\336;\001\304\370>J\247\r\277\037\240\376>Y\r\177>O3\335>\'\031\357\275R>o\277\2271\013\277\263\304\233=Uw\223\276U\204\246=\205\003\300=*\362\036\276\302(\257>[\tD>\374\340\226?\027\271\220\276\370\236\255>\225,\037\276\366\\o\276\006T{\277\342q\210\275\375\013\336\276\303\017{\276\2167\220=\377\322\036?-\226\252=\263\362\006?m|\230=\330j\222:\254\246\022?\032>\037=\340\372a>\341\266r\274\245\033\320>\036\013d\276w9\234\276\245Np=\177M\202>\034\233\370\275\014\240l>\217\276\033\275\021/w>\000\265\207\276F\252F=\363\312\256>\325\020{>\031\031\250>\2220S>\246\307\264=\217h\253\276\232!Y=\327\217\300\275@\006\355>\237\331\200<\250\327\025?+\312*=\302\000\204=Yy\007?\342tN>\373\365\222>\323\365M>\016\306\210<\227\236\360>|\342D\274x\030+?\037\316\364>\231O\247>\270\266\312>N9\247\276\034E\240\274\350w\326\275[\326<>\3529\276>\252O&\276w\301@\2777\204V?\346KX\276a~\021\277|\007\004?\241U\221>\020\200\377=a\211}>\264|\003?d\263\274=E\030\032?y#I=R\003\223>ql\301\275\221\352W\276\203\304P?\227\331\352>/\003\330=\"\373\025?\0226\022\274Q\220\251\275\236\222\257\275\265\344\026>\2555\032\276\023)\306>\206\226Q\276\323\334F=\r\242\314=\214V\355<|\025\302<\207\325)<a\240V=\n\3344=i\036\347>\304\360W\275\306\260)?\221)\021?M\200\234\276\353\377R\276\335\004\330\276\301\345s>\221\263M\277\340\247#\277\2343\336\276\004<\373<V\241i\2761\273\002?TzE>\221h\300>S\274\030>%\210\327\275\006\2476=p\010\234<q\252\002\277\370\335\351>\006|\215\276\305\346\266\276\211D\220=X\005\206;\346\037\260>k8\360>\312\026\216\276\'^\374\276\201\360.>\010\246\265>\370\347j>\367\324\233>x\361\003\277\212\320\221>\001\336f\277m\'\016?\323l\"=\222\351\210\2767>\200\2763\036\242>\330\313\256\276\200\205\177\276\353-\236\276\252\005\257>gO\317\275\210{\236\276\220F\240<\273\374\201\275\246\261\200>0\224\264\276\331\255T>\274\231N>\275xG\275\264\017\177>>\241\217>\357\213r>s\376:\276\325[\370=J\342E>\340\002f\276\211z\013\276\340lD>09]\277-\222\021\276\322\306\013\277:\275L>\237\013\224\276\277\025\331>\004\001\261>C\312\032\277%\3746\276l\017\361\276\262\000\004\276\233h\241>\003N\177\275\212Z3\276F\006u\276\360\217q\275\253\213\004\274:\230\303\275\251\240\362=1f\230>1\024\263\276\3642&>\362\220)=r\3363\276z\373j>\003\003\227\275\201S\314\276\225\007\275\276KN$>nW\037\276[\345\353\276\337t=\277\203\366\344\276^\220\301>\037eL>\267\320\001?\356Y\247\2764}.\275\207\277\007\277e\272T\277\0027\034\277\327\361\010\276\306\263\034\277\226W\224\275\303\357*?F\262\263>\272\266\"?\37204>{yM>\267e\204\275\036\322\036\276=\245\022>\0260\374\274\003\036\026\277O\214m>\317\034\254\275~\214o=\350\210y\276iL\273\275\357\322\271>/F(\2762d\222\277\010\000\324>\336el\276\377T\365\275\377\273x>\315k\"\275\226\"\034?=\020\251;\352\307\306\275\317d\342=\r\365s= \375&\275\232\\\222>h\252\027=,w\370=\354t\300<m\342\214\276\231g\222\276-Y\244\276\306o\320\2754_\250>\215\321\177>\344\334X\275\351\337\260=\352K\006?\244\017\260>#\223\002?W\3259\275\266W*\276\334{\213>!\342u\276<.\276;\221\340\260>\240Nd\276\200\350\301\276\213p\345=\233\0137=\375\237\374\276\342F\006?\273\234a\276\221\202\233=.\345\221>C\032\005?|\007\237\274\t\220<\275\000\227\333;\351\314\220?@\035\276=\004&\325\276\335:O\276\360z\327>1L\240>\026\320\032<\366\267\200>\260_\316\275\030\222K\276\366\255\201\276 \025\335\276\241\306\203\276\361\353X\276\314v4\276Q\354\256=R\202\240\274=\344\026\276\323i\203\276\037\241\226\276e9\215\276\267Ps\276\260@\327;XQ\006>\213\262L=x\253b\276\023\214m\276$|0>R\310\330<\311E:>\251\244/\276]\263\006>W\3000>\273T\347\273\212\272\353>\320}\231>\254XW\276\251\232\253\276\251\342M=x\025\326\276C\363\242<z\332\020?\023\302\234>\304M\337\276\250\213\257>E\375E\276\000S\020>*\370\225\276\010i\312\275\322F\034?\205\034\272\275\201[\353>\006I\'\276w\342\311=\352\326\034<r\343A\276\324\n\t?\037<\365\275\245-M\277\331d\022\276\304g[<\024\251B>\346=\014>\213\301\246>\247\202A?\200\251`\276\303h1\277k\240!?\204\360R\276N\202\316>\316\302\304\276&\251C>Z\314\026\277\221dl=\324&\203>\242\346D\276\247c`\276\217g\351>\031\242D>\036\252S>\t\3044>s\277\004\275>\340\306=\207\010\021\2763]\363\275\"\331\007?Z]/>09\016\275\347\276\272\276\267m\002?h\263\005>\241U\324>\2668\002?\020\237W:\331\264\313\275\227#-=\030\376!\277UF\201>X\373#\276\346\355w\275\307\326\035\276\232\224\307<\324\214\202>;\261\236>G\355\270\275\357\311\035?\246\307+>\244\252\222\275\201\350y>\302\236\217>\265\266\250=z\230\214\275\377\\\343>\036\t\234=\32262\277\024G\203\275\234\254%\276,\261\010?#\347\007>v\316\265=v{\357>\036\310\271>\031IN\277)\371\200\276\207\366I\276*+\267\276\227\272(\276` |=\253\250\027>z\321\273>O\010\273>\224\267\036\276\234;#>\240\005\301>\320O\005>\250\272\356=;\372e>\341\274\273>\217\367\030=\2045\020>\237.y>=\254h\276\333\322\223>N1\033>>Y\343<\\q\032>\345\217n>M\336N>=\352\213\275HM\036?\214\357\347>\334\023\232>\2401r?v\2067=\277\010\300>%\354\326=\301\251&>\331W8>~\200\346\275\336\304@\276\276|\260>1M\224>\310\205f>SX\355=4S\226>\257Q\262=X\363\333=\206\233\342>\017L\200=\270\023\217>`\004\203=\273\276\303=\326i5>L\0050>\337|N\274\241\227*\276\377U\025\276\\\304\001?\220\221\311\275;\354\242\276\221I\004\277SN\n?6\340\217=+A\212\276)\260O\276\203\377g>\356\\b>\247Uk>\251\261\201\275\223\235\221>A\037#>\177\341\224>\240S\263>l\334M\275\267cb\276\355Z\004\275q\2746?)B\256\276\246W\214>\005\204P=\331o\231\274\027\326(\276m\320\274>\345\351\211\2762N\302\276\0031\017>\301\030\326=FC\261\276\277<\\\277h\210\340>H\252\366\275\033\307\201=\335\023S\276\035\215\373>\335\214\253>\323|\201=\364j\364=\317\301%\276\326\013\002\277\204Q>\276\234\202M\274\017\277\333>\374\013\212\275\276\275\351\276\246hC?d\353\214\275P\202\001\277\205\265\020?\256C\250\276\220\035\003?\347\356\010\276\262\247K=\205\"\320\276O\215\335>G\002%>\033\250\263\274\003\027\206>\242\"\\=\005\332\255>\215\325\203?\303\211\351\276\344\204\353\276\322\337\222<R\352Y>gJ\222\276\342\351z>r1\003?6w\005?\001]K>\364w\254>\235\232\312=\'%]=!\2615\275\2166\007?\276G.\276\214\002\200>e!\251=E\362\370>\302\237\265\275\275\313\013\275\374}\206>!\343k\275\251\356#=Tt~\276<\225V>\315:\277>\345!\244=\257\226<\277B\347k>\005F\036>\243?\001?\225V\216\276\003\030\006\274\273\332\217=\366\271D\277=U\226\275\363\344\321>\242\035\010\277\303\240\000>\300vz>\021=\221\276\324]\'\277\337\360\030\276ap0\277\217PP\277\005F\251\274\322g\010\2775\223\245\276\257\274O?m\205o=\265\257&>_\366\323=\316\234/?C<\t>\301M\376\276s\337\224>\372\021\200?\031,\211\276]dE?_\373(\277\037k\202>\216-\334=~\253\n\276s\362\373>\233/\340>\371\332\254\276\353\337\241\274r_c\275\266g\233\276\240\351\357>\250\327\332\276\td8\277\344\373\231\276\223<@\276\014V\006>\026\2627\276\277\340\222>T*\233\276\306\244\306\274\254\221\331\276d\325\016\276\332m\347\276\221a\306\276\317\234\026=bjx\2766\332\213\275\216\334\010\277^F\035\277\254\252\345\276ak\221\276`\306\305<\244!\230\276\004L\321>r\250\371\274`\0143>\244\371/?A\320/\277\211J\337\276\274S8\276l\245J>\016\2072?\236\340\371=\345\240\036\275\256\"=>.\361\326\276\3406\365\275dw6>Wsc\275\364\263\335=)1C\276\351\016\211>Q\013\252<B0#\276\215\'\025\275\312W\360\276C7\327\275\031\214\005\277L\235\311>\207s\307\275\357#\367\274f)\376\275\005\027:>+6j>\265\030\223\276)j \276\273\336n\275\2352\352>!\310\366=\270N1=`\316\000?\326\305H:\030\243\255>-V\306\276Q\025\201\275\250\362?=u\225\006?+\003i\276\352\224$\276\245\352\002?\2446\260>\322K\002>\251\330S>I\355$\276\206\201\200\276\206[\234>u\225\341\276\265@&\276\227o\302\274\243\305\025?\223>^\2761m\210>\246D\204>/\335\277>O\261\202\276\336.\233\276\252\247q\276\234\307\250\276\376\261\\\274\255\035\001?o\201 \276\272\213\016\277\210\020M\276\177\303\327>\342\254H>\001\000=\276R\347\036\275\014\217\355\276\353c\347\276\364\274\300\276\321\273x>\246<^>\203l\354\276\336\262\225\276~\037\n\276\031\010\r>\211/\303\274\234\270s\276\007\265\377\275\325\024\210\275\300\225+<Nk\024?A{\231\276>\237\335\276\252\354\237\276\020z\033?\223\213\355=\254O\374>h\245\002>\212\333s\276\241\354\265>h\255\001\277\347\240\016\277\202t\022?\260>-\276\361\007\343>\021&c>\343j\315>\002\020\200\274\030\213\264\276\017\005\014\277\240[\025?\310o/>\357r\034?\005\300\236\276cs\205>\032<\036>r\233\016?WH\376\276\026Zw\2760\226(>\3779#<\344\311\227\275\304\230\2239$\374\246=.n\257\276!\263w\276|\253\020\277,\264\252\275}\323\\=\377^\232\276\222^\372=:9\020\276\007D&\277\234\273\226\273`\247\234>\333w\'\277\202\007b\2733\312N>\351D\t>\252dD\275\225\230\035\277(rm\275\311U\374>}\250\220\276\202)\016>\377\001\227;\321X\023\276E\345\305\276%\005\343=\262\266\027?\273c\226>\325CY\276\006\255\302=]S\r?\374yq\276\274\226\031<\226=)>\357a??w\"\326\275\177\366Q>\3616\251\276 RT?\371s)\277\375s\213<\315\026\236>\021RZ\277\016tt\276\322mQ=w\270j>\372\322\027>Xe\301\274@\244\260\276A^E>\336(\232>\217\271\254\275\325\361\274\275\253C\223>\220D\334>\226\325\364\275\225W\235\275\2157\016?\340\242\373\2744\255\234\275\371j\342>O\225l>j\301&\276T$C>\302]\216\275\322\003\356\276\362\227<\275\273H\300;\350\343\241=\312\r\215=\371\326c>\313f\014\277\r\374\013?\316\364\001\277z\306\337\276\031\234\361=\234\201\037\275\241rz>\341\232\305\275\224!\213\276Jn\257>\213\352\262\276p\260\225\276\020\344\r?\345\363\236\275\246\211\035?\267>\340>\201\364\223\275[\350\033?f]\346\276f\243D\276n\366\300>Gk\204>PJ\021>G\323+=\314\250\214>\370\346\200\276U~9?U2e\276g}\277\275\326\022\224\276\227Q\256>\222\302\237\276WM\342\275\250Q\361\276\026\261\222\275O\021\003\277\362\357\302\2766\327\016\275,<\250>\353\262\033\2775q\014>\204\274\004\274\020\374\204\273\347\215)\277w\235\252\276\255Q[\276\201+\010>\370\367\016\277\002\275\262\276c\2308=t\346\302\274\035\213\213=Mn\010?\355\260B\277%o\205>\352\374=\275\346\023\366\276\341?~\275B\343t\273%C\311\276\321\313\345>[;4>\251\234\252\276W\277\251\276\025o^>\213\354\366\275\033z\327\2758\3304<\325\200\260\276\332\311j>i\302\267\275d\273\261=D\233{\274}7\240\274\006\332\340=\r\217\225>-\032\003\276\234\206\240\273\363\353\263\276\251\371\312>\235!\026>\031\007\352>E\211<\274\330\273\215\276\307 \236\276U\2760>GA6>\302\355\314\276I\322o\276@G%\277\360v\025\277v6<<B\315\277\275\027%*\275\211\345\370\276lz\200\277\320\234<?\332G\207\276\216\006%\277\177x\273\276@\363\026?{\207\211>\002\013\202\276|\251\013>\210\004E\276\330\214&\276\246\\\346<{\363q\276\213T\336\276be%\274zp\213\276\351$\314\276\266].=SG\017\277\265\373C>\001\354\022\274\240\315\025\277i\371 \277\240\267$\276i\345\213>$C\331\2760\237\212=\270A@\276\345\253\277>\306\230\274>\376U\334\275\034\317\030\275.\341T<\221?\t\277\250}p\276)\233+>\247\302\021\276KoD>\026\005*>\302\246g\276\254jC\277\370\221<\277r\210\335\276\362\0073=t\312`>\243g\214<\334Xu\275(\235Q\276\336\026\335\275\315\267a>\246\276\016\277|i\233=q\347B\275\240\030\246\276\337\246\266\276\2451\214\275\270\270\020\276B\340\365\276\3250\231=`\215\251>\025\244\030=\341\211\217\276@NY\277\232SZ\277\213\273\006\27772\274>u@\305\276\221\320\313>4\233$\277N\374\277>\336\025\250\275\217p\372\276+p\004?\305\010M\275\301\210\233\274\301e\263\274;\225b\276\031jm\2754\357d=\263\310\203\276\230}\013\277N\210\211\276\010\310K>\310\263\203\277p\232\032\276H\353Y>\202\274\354\275<)\232=\366\"\243\275\371x)\277\242\005\201\273\317,\371\2757r\246\274\224\226\316=\376\246\322>_\324t>\3558\252=\242\014&\276\230\325\202>\240\263d\277W\212\006?u\230\246\276\212\237\232=C]\220\276g\326S\274\313g\255\275\225>\334\275u\026\032?\333\224\024\277\327\363\243>]\227\356\276B:K\277e\245\031\276\214\217\244>\213\226\216>\340\330\033\275\260\031\240>\020\234D\276\315\266\\\276\233\021\215\276\013;\224\276\177\022\334<\230\250\236\276\200\254l\276\"e\352>\031\005\241\275wE(>\212\325\370\275\375\236\344\275\027\317\257\276i\307\000\276K\026\023\276\332\373\205>\364\2432\277\222\357\236\276\321\245\372\276\013\206\211\276\242\305\317\276\246\020\\\275\247\214\215\276\215\234\210\274\242eF\277\304\224\235>U\306\311>t\252,\277\320\221\375\276\3601\243>\370\223:?\214\020\365\275\027\211\325\275\302C\006\277\n\003\342=\034#\212\274\335\346\026\277W\236M?j\337E=\262)\232\274\351\361\354\276\261,^\275\314\347\013\277_\204\254=\224\323>>R1\022?\227\342f\276\336J\205=*z\227=\345G\326>:\242\237\274rLW\276\030zD\276\316a\230\276\212\004\200=\233\201\357>\302\274\030?F\376\273\275i\274\210\275\261L\304<\271.e\276gg\237=\010\037\236>\003\007\225<R\363k\277yL$\277\254f[\275\024\260\004?Z=Z\277\376h\241\276\326\260\002\276\010\302\300>\007GW\275\030s)?\200\207A\277\365\001.\276\0333\245>R\222\377>\n=\265>w\273\225\276\273RD\276\n\207\241\276N\277\332\276[\300\353\27621?\275t4\231>\365\0009>\313\335\371\276v\342\033\277\373F\225>@\224\204>u\345D?\346\317\266>\006D\014?;T%\276\024\020\213\277\247\230N=F\3712>\362\014n\275\017\250\037\276\202\266\235>B\253)?\033<\037\277\250\325\365>i\213\n\276\212l\305\276\'&\355>Z\335*>\223[L>Mb#\277}\022`\275\365a\010?\023\n\216\276\253\014\212\276\340-u\276+\324\001\276\222A\002\275\374\001=;\013\204=\276\210*\333<9\215\355\275c\347\273;\2169\377\276v%~\276m\326S\276h\027\010>\301r\336=\223\345\\\276\0026\206\276\305Q)==\357\010\276j<\202=\347|\033\275\256\371.\275=I\246\2759\202\315\275\252j\025\276)\272(?\026J\000?\217\272\203>\"H\223\275\307\317\207><\252\267\276Q\325\235\276{N\273>\245\207\265\276\335\261\026?\230\203\211>\337&\226>.\265\257\276)\024f<{y&=7;\273\273\355\253{>\344k+?F\025\266=\363\340\212\276\200\221\255>\244\260\020\276\004\177l>ju\n\274q\256\021\276@\237(\2760\016\350<\375\255\014\275\250:\276\276v\003\013\276\004S\224=\035\216|\276\254\035u=\002\2047\277K\333\001\275e2\014>\rZ\254=\250Y\021\275C\3731>\241O\332=CJ\207>\033\260\216=3\014\256:2w\351\276\'1\020?i\302\252\276\323\205\373\274+*)\277k\002\347>*6\236<\377\202\002>\240q\362=Q#\341\276\320\360\322\275\211\352`\275v\252_\276A\234?>\270 \355\275V\225\226>\252\371O\276I\010\271>\223k$>\350\2260>)|b\275\352\020\037\277\260\273\000\276$\354\025\2763p\177\276\227\\X?\301C\377>g\333^\275o\331.?\203\316\001>Bnn=\361\324\315>\361\2424>K1\354<\222\000\035\277\217\020,\274Z\033\333\276,\323H\276x0\025?\204\271A\274\312`\260\276\022\337\t\275\3770\002\276\360&\273\274\371\000\013\277\0162\332\276\257\374\027<\250\367\006?wm\001\276b8\213\276w\017\024>\r\214\035\277\335+6\277\037\274B?\226\224\240=^\364\"\276\264U\003?P\213\202>\317\236#\276;\'l=\247R\220\275t\374\240>J\346\366>\261=+>\213A\021\2755\314\207>\226\r\226>\230v\366\275RLR=\254j\024=-\000\205\276\031O(\276\253\361\226>c}\023>\004\347\245\276\000s\234\275\266\275\027\276B\262:\276c\212\013>\320\304\265\276\206T\352\276\030fi\273V7\001\276\203\033\371<(4F<\275(\316\274\330\347\271\276\253@\330\276,\237%\277\021\0046?5\211\021>e/\367\275\251n\377>\345z$=X_\013\277\353@\217=Q\246->\311\376 =\276t\362\276\360\346\215=\362\263\233\276\227\354\215>\260\272\235\276\005\373\037\275 RM\277\326g*\276\257I\352>\031\027\231\276*V\372\275\276p\013\277\271([>\036\234\362\276X\321v\2764\304\246\276\024\257q>\354=\242\276NU\376\276\2750\r?`\373\227\276\261V\004\277\005\360\265\276\342?\004\276\301\341c>\004\236\212\276\356Q\304\276\204\245T\276\305\030\203\274/5\357\276\243\345\002\277h\366\327\275\021\233\035\277:\240/\2766\0305\276\321\034\001?\010\326\273>t\231\364<B^\251\276]\tu\277\233\277\250\276\211_\r\2778\252\343>v)\200\276V:\270\276H\365\035=\3227\344>\014\214\210<\362\244\311\274\264\276\227>id\210>\222\345\202=D\231h>\321\334\214=\217:,>\177\024\251\275\362\t\245\276\260i\036>\317\010\253\276&7\304>\242\215g>Y+\000\277\013\256\315\276~S\207>\243\354\255=l\335\200\276mJ\336=T\324}\277/\350\203=\310\023\311\276&\335\214\277\261\352\317\276>\350\230=\352\226\343=\315\271M\276\274X.<U\306??\235\270\271=\025w%\275\021\017\345\275C\264\222\275%\224y\276\252\265\216\276y\362u\274\246\200\036=W\021X\276\275\007)\276\207Mg\276\3305\240\275b\350\211\276\350C\205\2716\tb=^\347\270\276\031\203\032>\267\031\032\276\260u\r\277\025\235\372\275^ \336\276\2348\231\276\233\344\201\276L\013y=\322a\026=\r]2?*\277.>A\031M\275\335WH>\316\037!\277\020O\345=\207\224]>s\255\214\276\305\024\310\276\347\2646\274\215\215\264=\356\326\342\276d\020}\275\313\023\217\276\251\223\371=\326A\007<\234,\223=\034KU\276c\243L\277,\276\374\276\214\251\222\276\203\255J\276\330\330I>N\342\324\276\230\3552\276\t\306o>6\367V\276t\226\213\276\236?\005\277\010\246N>\314cC>x[l\275\0130\025?5\254l\276C\310\033\2763\302\002=A!\341;5\210\206>\320v\335\276\0131\356>\320\3552\273\007\325\374\275\001\270\315\275\375g\2039\360Q\270\276\356\343=\276\3674\270\276\002v>\2772}{>v\266\354\276\307?\357\276I{_>i\001\246>\357h\006\276\214\215\254\274\325\264\321\276SD^>\261Q\222\276\247(Y\2719\201\271\275I\362\335\276\241\351\250\276 \275\021\274r\375\004\277q\001\307>g\224\217<~*\013=k3H>\242\'\024\276\254\233\212\276\331\302\313\275\320\200\243\276\304p\231>\3701r=\260\263\215>Sw3>U\333\346\276\345\375\033\277\202\220\235\275M\342\'?\366\360\200\276\230O\335\276\031\003\206>#\3344\277 hg\276\0240\271;\340\266\r?!K\214>b9\320\275\3478\250>\302\274\r<oc\260>q*\216>\274\240\236\276\370LX?\361@\014>\2021\230\276>+Y\275\230\351\377>\230\'\347>8l\323\275?\033$>\263\311\340\276\030\231\214>\216\246\271>so\232\276\207\371\223\276\026,`>I\316:=\361E\307\275y\347C>\333<\266\276$r\242>Q?\330>\032\312\326>e\034Y>\237\226\031?\006s\371\275+`\275\276F2}>O*\217>I\234\017\277\235\213\206>\301\246\357>\260\354R?\356\223\235\275\304\310\314;\273\376\317>8T\336>=R$>q\034\337\276s\251\245>80*\275\304\302\351>\274a\332>\021\360m=\250\226r>\324\254\217\2761$S?\264\351{>\326\374\375=!d\230\276\322\310\240\275wnC>Q\302\337>PR\311\276\001\264\213=\362h;\277u\322\003\276;5\026>\030\337\247\276\017\311\265\275<>\322=!\036O\274\363\345V\276*S~>\236Q\210\276}\364\333<\216\252\211?\300\253\002?:\203\337>\230,\204\276v\355\366\275\357p\274\276\336Vm>Ab >\027%\036>\231-\007?>\214\342>\364\354[\276\213\216\002?B\"\316\276\025b\004\277dge>!\3558=?\333\261\276S\035\246>^t\260>\245\3373>\037\243\264=([\220>\326\003j\275\207-D\276\202\033%?\322\233\334\274!\352\021\277\331\263\360>\177[\017>\032v\231>\314%t\276\372\263\271>\263\372\036\277\003:#>\226K:>\330\242`>\206\301\351\276\324?\223\276\275\253\230\276j\273\315;\321\213\271\275\376\227\317\276\217$Z>\241R\246\276\3444\206\276M/\006<\225i\225==\270\271\275\206\347\211\276\300oA?\353\321\216>\034\263\232\276\033\260\252<\345\2228\276\2254\215\276\253\007\374>Lw\211>tX?\276\342p\376\274\241\342,