node {
  name: "input"
  op: "Placeholder"
  attr {
    key: "_output_shapes"
    value {
      list {
        shape {
          dim {
            size: 1
          }
          dim {
            size: 129
          }
          dim {
            size: 257
          }
          dim {
            size: 384
          }
        }
      }
    }
  }
  attr {
    key: "dtype"
    value {
      type: DT_FLOAT
    }
  }
  attr {
    key: "shape"
    value {
      shape {
        dim {
          size: 1
        }
        dim {
          size: 129
        }
        dim {
          size: 257
        }
        dim {
          size: 384
        }
      }
    }
  }
}
node {
  name: "TestModel/depthwise_weights"
  op: "Const"
  attr {
    key: "dtype"
    value {
      type: DT_FLOAT
    }
  }
  attr {
    key: "value"
    value {
      tensor {
        dtype: DT_FLOAT
        tensor_shape {
          dim {
            size: 3
          }
          dim {
            size: 3
          }
          dim {
            size: 384
          }
          dim {
            size: 1
          }
        }
        tensor_content: "pw\251=\222\030\323>\204\324\346\276\263\224j>@\217\221>\375\322h\277\211<^>ff\346\275c\322*>\346.\306=\014\324\005\274\310\355q\275u\222x\276\007\343s\274\r\267\232?d3\215>\202A_>\322%\025?\367gH\277\005}D\275S$\246?t V>\016\323\247=\3357\215>\001\253\365<\257\261O\276\326\264\200\276#\330\227\276\377}Q=o\222\372=<$\014\277\032b\205\276\333\362[>Z\227\034>f&\252=q\325\307\276$\230O?\035\237\255\276\030\377/>V\340W=\302\372\370<Jj\223\276\214\305\343\275\231\364\002\277]|\255\276\306\261^\275\024\025\327\276E$\030?\257<\026\276M\276\314=\036\006\300>H=D>4\020\277\276\364\375l\276\264\313\320>\366\327\315>`r\367=\241\224u\275PcT=\270\332\233\276\260\203\201\276\305\235\224\276\251\240\276=}\224\005>\216Q\370\275mj+\276\025\311H?\220\005P>\271.\361<\003r\007?\023a\304>!\'\236\2764\242+\277\032U\346\275+p\210>\024\023l\276\342E\271\276z\265\213\276\233\252K?&\0037=\225\243\204>+\3711>!w\236\276q\211{>q9\226>\025/\227\276\032|\350>\'n\237\276\351\235\343>\202\360\354\275\341k\230\276g\201\223\274O\314\301\276\315\007/=\332\031\221>\020\033d>@C\010?\314\236\034=\0053\363\273b\031\325\276\26204\276\265\326\201>\264\372\030\277\000\005\353\276\246\003\027?\374&\314\275\177\205N\277\361\267\223\275A\220\226\276X\257\347\275\346k\315?2\n\225=\326\300\342\276\034d\231>\t?\210?\300_\270\274\251\200\234\275@\262N>\354^\200>\307Q\r\277\247F\272>L\343};L\033M>nU\330>\3272&\277\354\232\376?=\\\334\276\367-\347>\315\r\265>\236,i\2763/\262=\353\330;\276\272$8\276\235\362\004>\333\240E=\245\221\301:\341\347|=}w\237\276\302w\243\2760\230\277\275\246*\206>\342\224D>\337\362\262\274\211\341\306\275\t\t\231\276u\324<\276\334p\217\276\246g\264<Z\270Y>\360Gs=e\272\033\277\270\243\007?^ \267<\217f\334\276\200\373\214>x\326\022\277\344s!\276\350U\251\274\021\233\217\276.\251\t?\273\'\274<3\002\300>.\013\260\276\026w`\277\nzM\275\221L\034>A\361,\276\352\343\254?-4i>Y%E\276\221h\264\276\243M\373>\231\247J?%}7>\373\2118>\233\332\\=\242%W\276aTS>\207\203\022\276 \326/?\363I\262>\326`o=\313\204\212\276mw\333\276,O\016\277\013\r\247>\265\0044\276o\036(=\270\353\336\275\252C\240\275r\257\267>\337\316\271\275\002\017N\276\332\001y?>\210I?\263\304\270\276\240:\234\275v\211\272\276\375\014\260\276\372l >\247:\020?\343\271\211>\010)\345;\003\240\213=u\n\234>\230\rW\276Y^J=\233\344\225\275\366\362\211=\352Xl>\262\013\024>&\310\376>\277\326S\276\036=^\276\340\360\372\275\326\213\226\276\n\250\017=\327\251s\276\353R\277>K\310\3779.s\351>\310\010\275\2766V =\327\350\233\276E\334\t\277h\216j>4>(>\177\366\200\276\023\3535=\222\213\222\275\205j;>\020\357\362=D\261\002\277]\353O>R8}=)if>\365\351\205<\344\355E>\'c\237\274\367nz=\243\213\344\275\214j\030\276}\347\022>aU\262>\320:\213\276\030\020H?\202 (>\266$\253\276N(}\276/\002\201?\371\200]=/\3063\276\366\334K\277\266/X?\331\031\250\276\033\267\217\276Vt[?\266p\342\275\271\331a>&\027\034\277\263\022\235\276\201\313e\276$\257Z>Z\334\212\276IIl\276\214\350\300\275\212P\253\276\023\274\313<\314$\000\277zz\207\276\370\020 \276\346\245\n\277\311\213\035>\371/\034\276\273\215\361\275\000`\302=\016\311\203>\237\r\322\276(\016\022=\223\343l\276ox6=\332\345\355>+6\256\2761&k\277\013s%\276p\013\027>o\366\010>\031j\327>!\2131>\026\340\032\277\202\271\212\275\206d]>\252\222\262<\211%\306\276\276n\222=\240,\347<\365h\242=\303\262\274\276\336\004\200=\244\035\224>:\035\023=a\274 >o&)\277\177TS\276\206X?=\031\345\227\276`\255\354>\334\002@>8\376\327\276\242\3728\277\321e\322\274\3201\201>[\327\305>\374^\257\276\370\0272\276_?\377\275*\263\216\276V P?\343\373\214\276\220t\232>z]\364\273xc\361=\335\0035\2765)\363=\374\231\334>X\004\234\275\033\n\034\276\002;X>K\355\246\275\243!\300\276|\221\025>\214\350\021\276\353\336w\275\231\233\211=zx\210\276\'\031)\276\256c<\275\r\355\246\276\366p;>\360;|\276^\211\303\274\353\263\026?\035\035\017>\346\342\232\276\357x\375\275\261l\323\276sq^\276\271\323\203>\377O#\276\033\333\200=)O\t\276m\024\244\276\2749\320>\250\2519?\236)8\275\375&>\275\270\017\221>w@\327\276C\032_\277\252#\201\276uJ\033>\342\017\265\2751Z\315=p\312i=\002k\342>VN\022>$\217\010?\366\266\366\276\363\216\201\276l,\251\276\256\232$=\321Z\006?\356l\253>\275Ee\275\322\r\334\276~\'\002@D<\250\276\366O\241\274\270\312\275=0\215\216\276C0\253?T2\314\276v\235\372\276\322\024\002\276\006\365\224\276\343&`\276rYI>X-B?P&\017?\346\235.\277!\'\246?\025\367\352>1\373\200>R\241R\277\224\252b?\264\301l\273\224\345\262\275\005\025\003?\324\266\331>X\237\001\277+V\224\276\332\260\253?\337d\344>\034\243\206\277V\232\t?Y\265)>\000\354\373\2766.(\277\265\256\300>\225\334\211\276\016L\227\277D\006\267\276\226\035\246\274Y\010\331\276>\024R\277\223\262\261\276\233H\255?>\rJ\277\325|(>phG\275\260q\215>\217\242;\277\026\352s\277\333\276\024\277E \301?&}\010\277\370\002\355=w\273\200\274c;\323\276\351\360\272>\213D\010\276\023\324\204;vR \277\221m ?\307Q\020@\320\332;\277I\035\262>\216S\276\276\0220\250?>\326\334?:mp>\235\335\003\277\353(^\276\326~\026\276\312\335\234?B\235a\276\361\366\235>\035C\276=o\317{?\263\346\332\276\242h\003?@\345&\2757\275\004\276\353{;?\305b\213?\257\311\241\277$^\376\276m\n\002\27740p?8s\220\2760\275\006?\003\200\226\276\021\245\t?\302W*\276GO\221>\365x\031?\233\213\003\277,\202\017\277\202\367\363?\004\331g\276\256\330,?\201y&\276\371q`\277\340fH>p\r\221>`F\t\277Y\002\355\276\334o\202>5A\331>F\000\240?\373I\"\276@h\335\276?S$\277\326Gx\276\367\2355>\256\353\344=g\250a\277n\224X\277Nx\356>\275E\265\276\0074 \277\235\3313\2772d\372\275a\377\034\277`z\267<\306\257\021\277\363b\024<\226\362n?f\002\010?e\320.>\002O\321\276\313\357}\2762\365&\276\2346u\276\201-\014\277,M\325>\300\221\270>Lo\010\276=Z\036\2777\\:\2765\243\343=\262\271\031<\341&\256?[`\210\277Z_)\277\004N5?\025\034\010;\007\001\231\276\346B\223>U\221\000=f\3257\273\370\010\037\276\331\253\226\277\334}\237\276\034\n{>\321\237\033\277HA\274=\324\3713\277\340\351\301\276\261\332\202\277\n\022\014\276\311@\030\277\357\026\225?`|\345=\375\244`\276A\345:@\323\300\313>\223\255A\277\367\363\375?:\367G\277P\274\310\276\214\005\351>\220\261.\277\361\334\355;\300u\000\277/\340\343=\342\250\210\2766}A\277\202^\203\276\343?j\276\340\001\"\276\256\331\373>\216\020t\276\'+\311\277\360F\222\277\204\355\254?\344#9?$\230\274?9c\237=\327\252\007>#\223\226\276)\232\336?n\214\000\275\311|\244\276\237?\032\277\357\030o\2779\024\246\277\'4\321\277\"\371\002\277\345\202\277?\"\305/\277\243=\026\277vQu=\222\374\030\277\322\023\266\275\337\210(\277\246,\300\276\2111\312>GKG\277\303hL?\006\362e\277P_\354?ne\352\275j\220\014?\326\312\267>\350i\236\275%\277\351?\200\3244>l\027\004\277\323\316#\2777\035|=7\321\237\276\357\237\337\276\022\341\246?\231\311\312\276\320\260\235\277\320\367\213\277\215\205>\275^\206\242\276,k\204\276\203C\275\275\352\273/>v\363k??i\266\276d\331\357?=A\246\277\314\231\220\276W\021F\277w@1\277Bg9\277\334\367\233?\335)\354\277T\006\200?\203}\200\277lY\023\277A\007\341=B>7\277l\034\\\276\2417.\277\350\201\215\275\265T;\276\\\204*\277\2266\371\276\262\350M?\240\354\035\277\270\372l\277\344l\250\275\303\017u\276H\356\330\276\371\235V?\032\013o\271\024N \277\325\360\r\276\332\312\307>\031u\032\277}\016-\276\177-\006\276\026\353\321>\264\371\000\275\241\342\306>\217w\313\275@J\255\276\376\305\225\277a\3750\277\002\300\243\275\367=\301>\323\310\233\275ka\221\277\241\267\265\276\231\260\313\276k\227\314\276 \343\301?I\213\017\276_0\216\277\200ww\277\244\223\201\2762x{?\337\003\r\276W\021T\277\017\373L=\233\331A?T\224\236\277A9\026?\005\273\320\276\376s\035\277\201@\236?\233K\004\277z\271\355\275\001\255h?\021\320\221\277\016T\242\276\035\226\004?\300,\302\276\332\372\353>\212\324\304=\031\'T>r\216\031>\037\253\275\276\305/A\277\345\326\210\274\310\323>>4\357Z\277$\010\025>4\311\222?\371\317!?\313\332\367\275>\372\005\277\003F\360\276\014\327\t\277\027\345\312\276\320%\202?,\342\250?M\033\004\277\267 \201\276)\267\257\276\262\n \277T\315\016?\253+I\277=\255\306>\322R\217\276\"_\264\276[\203\263=\3775\222\276\022HX>\370\002)?\344\245\026>\3155\326\276\214\345\212>r\335\003@\215U\322>|.\375\276\352D\033\277\375\010\224>\305\216\244\277\0006\210>\035\255\r??\237\337\276\200\305P>\324\251\221\276\3032\216\276K\236%\277R\273\372\276\r\314\304>\t\325\225\277\276\020\363\276\231\213\020@[`\n?\272\260\251=g\262\004\276^\234\244\277\363\330\354\276\301E\313?\250\252.?\\\r\t\277\264h\227=\200g\341\276\226&B\276\036:\223>$\377.?\322\312A\2765\022\317>1\245\000\276\005j[\277\310\025\332\276\215u\376\276]V!?\350\224)\277k<\244\276\036\224\204?\'\231\205\276\335\375\257?\315m\247\276\376\313\215\275,\345v\277qr\325>\374M\340=\t\372\221\276\374\312\320\276\316{\364\275\327t\207\274v\366\200\277UO#\277\334[\022?\242\250\205\277\2276\326>\004\211a\276\347\271\017\276dVk>\230=@>g^\241\276\367/\343\276\212\222\220>\311\276D\276\323\363\243> *\200>\224m \275\317\322\367=\256~\355\276\2160=\276\352\034\323=\333\300\206>\225Zv?\253\324>>w\324\017\276;\361\'\276`\370R?\344\363\021?!\320\252\276A\351\372\275\316\t>>\316\214b=\'\304\242=T?\342=\326\223\207>T0m\276\335\241G\276\305}\013\277@\303\260\276\te\026\277l\361\222\276\302\207\215>\'P-\277w\025\232\276\307\303\265<a\r\226>\350`\025\277\334c\306\275\177B\"=N\366\224>G\376\306\276r\004X\277&\357\252\276\270\307\211\276\002\351\202?\034\361\351\276\241_\033\276oRy\276\351\231G\275.\t\010?os\211\276\270\311N\276\201u\360\275G\202\325>\253\354\324>\\\013\351=\350\235:\275\215\017\264\275\013\263\002\277|[\210\277p\350\221\276\354y\322=\262\370\323\276,\276\311\275\216\210^\276\241F\367\275\266\237q\276q[\026\276\320\340\273\275]\2468?\242\322M\276w\223\033\277_\363i\276\002n\236>\2655(<i\264\271=\272\366\275>4\241k\276\235%#>\273\0103>/\2368>\225\264~\276\035.\005>\025\264\003?T\234\253\276\027\306\307=\323J\231=?\222\021>M\220\302\274w\311\331\276\331\3142\2754\304\210=\212\322c?\377\277\026\277X\343\243>\230\376\275\276\353\304!\276\rf\305\276\2052t>\201\362%\276\204Eh>\3461\333\276\237\037\010\277\312\337\004?\271B\236<\217\347C\276\341\355\314<\252\037\316>\251\341\341\274m0\r;9\317\205=\271\242J>\370N\216>\277\005\n=\270\030\227?\315\206~\276?z/\276Q\372\r\277\002<\340=\225\006\000>y{\277\276v\304\207?\314\375\237\276\006\221\337=\323\014?\276-f\003?\353\345-\276\014\363\324> \260M\276\303\315\261\2768\363g\276\360\360\246>0z5\276\316*\357<\311w\t\275\366e\032\277\264\261\224\276fY\211\276\n\026A>g\271\260\275\224\202\302\275v\023\321\274\360m\207>\211\360\326\276\034P\223\276\020\010\245>\"\200\267>\022\355n>\236\255\031>\371!0\277K\313S?\214BV=\2628+<w\\\317>\332\032w>\304\031$\276\201\224/=2Y2>\377\250\334>\257g\313\275\320\'\226=k.\304>v\276\317=^QS\274W\316\265=\221\3414\276\034\277\276=\217\236\330\276\325F|\276\344hy\276\2561\031?E;|<\361|\223>\307\331\264=\311\032\004>\354\032\242\276\273\244\212>\210\036\350?\211p\327\276\001n>\276x\370\221\275\314\361\226\276\330d\365\2768\263\336\276\253~\016?o\335\206\276\206\222{\275\026\252\330>\220\353\022\277\212\r\346\276\217B\364\275\271\360\362=wHY\275\256=%?\r\222`>r\003&>\212w\217\2762j\362>\340\245\n>\202\322\024\272\315\n\236\276/R\342=\n\333\271=\276\017)<\"\000\227\276n\256<\2769\352\206?\375\350\243\275`\177\235>H\316\360\275\256K{>\336\337!>\325r*\276K\003F\276\021K\232\276\323nO\275*\241e\276\372\017\260>\313P\026=z\025\t?+\216\215\276\203J\226\275\177+\365;H\017\003\275\333\245\266\276\013H\302>\262\200\240\2760;%?\203b\260>\366\212\t\277\034\235\310=|^\"<\026\016k\275\241\237\227\276\365\200n\276\275\303=\275K\347\322\276\366[\220\277\240\260,?6r5\277n\203\306\275\200\027\241\275\311\254G=u\250v>\343*\032>F.m\276\031\362\335=\342/\252\276\203\337\003>c\300\014\277\272\311\221=\013j\310\274\2209`=\214\204\016?aEz\276\207\3464\277\277{\303>P\005\322\275\313c%>\270\241a\276M\377/\276\272\216\272\276j\236\251\276\306\345\n\276\354Z/\276o\001T\275G\263\017>o\250\340\276\366Ps\275\340\267\373\276D\277\n?\te\226>\274%q\276\030h\016\2763\001\014?\327\003\321=\365\210\360\276\001\253\300=\356\250\177\276\010\214E\275(\207\314>\264j\024?\035\247\254\276pX\340>\374\315\361=\237N\273\273\'\243\003>\271\2306>53G=\251\023\300\2765\202\267\274\2248t>(\370\226\275\234\303_=N\"\207>a\010a=A:s>4-\013\275\265\305\253>\347{\334>\022\'\275\275\2154\026\277\350WN>4\307p\276\314m\306>W$\207?\355\272i>\246\251U\277\275\353\275>.\312\220>(\257>\277n#\242\275#\t{<x\036\306?R{\212>Y\333k\276\341\2172\276\376Bc>]\267\222>\'6\336<\001;\034>\203\006y>~G\252=g\316\022?\257\367\266>F\301\031\276T\300\321\276U\267\004?\376\260\002\277\016\252\227\275\361\333\360\275\014\267Y<\002\221\214?4\242*\277\\&\213\276\\\3771?X\357\257>\241\247w>\370!\233\276DG\300\276s^\203?+}a?\010\244\271\276\210\305\207\2758\302\245\276\001vZ\276\t\035;>d\367\340\275\260\323\315>\3233\303=NJx\276~E$\277\202~{>\302\357#?h\366\024\276\017?\322>`R\302\2763\275\342=\277\270\267\276\240\t\"?\275A\207?\033\000\354\276^\253\215=o\335\307>\017k\237\276V\032\031?\272\342\304>\032\351\357>\023\373\022\277\016l\005=\007\025\210\275\321\226!\276\001\211\274\275R\031\200>\215\225\317\275\251\016-=gH\321\276\320\202\255>(\310\367\276\323lA>G\355\266\276\350\210\027\276\177\254%\276\270*\003\277Bp\215?\264\240v=\004\022\210\276H\2435\277cQw?,\365[\275?q(?\244\315B>\371\263G?\237\005\343>\353K\225\277\214|\221\277\233)5\277 P\212>\220_\256?\344T\257?\352\250\305\276\201\257_\277\230Iy\277\262g\326>\253\006\300=:\001\330\276\005p\343>\331&\237>\255l\214\277v\r6\276\325\262\346\276\231\260\037\276\314\363\254=\201\231K\277\227Z\317\276\203\333\310\276\225\2220?\264-\312?F\366\217\276,b\001?y\214l>\222l\204\277\t\232E\277\335>\341\275\360\307\001\277\352K~?:\226\023\276O\363\332\276\201tI\2770\204Q\276\370#\025\277G6\026=\303\313\010?\014\2520\276\'UA?\326\016\251\276\226m\332\276\313U\024\277x\324a\276\365\n+>\257u\035\275\203\300\377?i\331\276\276t`\242>\007\021\204\276\371N\365>R\334\034\277\025*\007?\306\250\257\276\362\020y? \370\340?\317S\232?\341n\216?T\n\367\276\002\340\263\276\270}A?\277F\314\276P[\031\276\261W=>7]x\277l\274\251\277)V\362>U)\n\277T\261Y?c\223\267\276\177Z\034>\340\331\351\276X\375f\276Pap\276\'\264\264>U\355?\277\364\031\n\277\023\300L=\266\032\255>\200\035\233\276\007\375\354\276\324\236%\277\'\236\253>\211P*\276\007k\024@\355\307\002?\003\221\377>\356\212\037>\013\306W>\024\321\360\274k\211\333\275\005\365\202\277\371/\030\277\336iO\275\376w\365\276\250\275\007\277m\304\302\277Nb\355\276u1\036>=\000\365\276o\223 \275\313\375q\275yD\025?Z\351#\277Gp\n\277\222\255\265?l<\311?\273\270^\276U\253\247\277\255\213`\277\022\n5\277\355\331\004@\273;{\277\216\3465\276x\362\374\276G<\216?z\226\355\275Y\207:\276\273y\005?\334.\272\274\317\325\325\277\327\325\245\276<\031\227>(\'}\275\317g\341\276\\\373\301\276\263\226\240\275\242]\267\277\216\355\360\276\214%\272\276\270\266\273>\177\324\037\277\333\023\224\276\330\273\263\275\3151\317\277o\322_>\375\333\302\275W(>>~w\350\274u\227\377\276\023\022\353>\210\024I\277\243\325U\2754%\030\276\311\222\342\276\177\320\203>m\223<\277\355=\323\275L\r\341\276G\210\240?6\214\305\277\356\314Q>\265\255E?\230`\300?V1\336\275\216\004Y?\325\206\303=+\376\217\276\256\324w\276\276\036\177=\210\271v?\320\202\262\276]\300-\276A\303\236>\262\323\313\276\316\352\355\275\307a\313\276\356\303\t@t\231\001@\037+\013\277\361\330\347\275\277.\324\276X\316\232\276S\031\003\277&A\336\276\317Gd>\014*\350\276\014\177&?\260\001\310?\201N\310\276\354:\214>\370\025\221?\026\367\270\276/\245\214?\255\364\202\276<\365\224\276\376\215\252=\217\"\"?[bS?A\032\361?\245\004]\275\212\222\226>\010\207<?`\375\244\276\305 \222?Iu\230\276}\225?\277\272\337I\276\355q\222?#~?\277x\317H\277y\016F>\301\322\\\2755\226\272\276\304\316H\276\036>\314=O\377\301\275\261@\225\276\366\212\240\276\330\254\207\275\005?\025\276\002\0331\277\'\271\020\277\023\207C?Y~l=M\025m\276\360T+\277\233Z\342>\027\373\016?\374\\\244=\345\363H\277\207\357\300?^\030??P\267\275?\253P\"\2775%:?\177\3342=\203yS\277\316c\306\276\311X\225\276\003\032\302?\274\271\372?8^\201\2779\236\212?\270\257\241?\323\323{\277\020\250\257\276\004K\362>\362\334:?\361_\354?\2678\355=\312Q\005?\\[\226?\240\240\037?\361\211+\276\363\372g\277h}]\277{.X\277l\030y>\365\021\217>\031A\215?\357r\321\276\002wm\2753\360\315\276U\263\000=\030\006l=H0$\276\313\371\224\277\365+A\277\216\267\245\277\305\356F\277\222<\376?z6\344\276_~7?\332\241\017?\213\205\277=\203\275D>\017E\264\276\246x\372\276>\3524\274\340\366\200\277\004\177v?6\031\372\276;\034D>\037k\273?oq\374<L\273\243?B\\\205>Z\021y\2760-q>*\037\024>\022\331\232\276\216\251\375?\3175L\277Wi\206\277!\236#\277\003X\360=U\312\'\276\232\310]?\341Y\242?\277i\002\277\200X\242\275\232\374U\277\257\362\352\2767\016%\277\217\270\240=\025\3321?\260f\"=\345\354\005\300\371Ud?\210\2128\277\353\2249\277\343\276r\276\030\244Y\277c\234\266\276\324\366\217\277)\217\020\277\351\'\206>\320\301s\276\362%Z>\013\031\254=,\245\264>\234\240\r\276%co\277N\231\223\276\245\242\202\276\275dT\277\247\036\002\276\365O\021\277\014\375\277>J\031\357\276\261\017M\277T\362\303\276#\014\211\276\242\351\204\277\222\024\274\277St\345>\224\360\354\276\223+\316\275\335\312\210\276\237\362(\277\017\220\031\276J\273\340\276\262\244\005\276HU\241\276+\354W\276\346\202\335\276\254\232\256\276\266\254\265>\277V\254\2767\017\221\276\316\222A?\005},\275\301\3471\277%\333\274>\3041h\276\215\206\277>;.\327\276Rp\034\276\341\216\221\276\214\2164?1\312\223\275F W\276E\301\020\277\276\372k\276\311\226\220\277\230){\277\356{\031>?\016\321>\323jz?W\245\357?\235z\227\276\353\364\267\2776\356\007<6\200s\277p\317<?\023\372V\277\t\236\016?^_&?H\244\200\276I\303J\277\003\031\270>&\313\225\277F\017\220\276K\030\317?\004|\254\277}J\274\275\007\2611?;\r\265\276*9\364\277\230\022\244?\345c\246\276\003\000\025?0wX>\252Q\221\276\231\274\265\276\027\231\r\277k\204^\277\334\016}\277\366\217M\277\276<\006\277\327\250\257?\337\233z\277\212>\207?<\315\311\277Q[\255\277\354\210\221?\0077\361\275-\252\253\276J\204\364\277\302\353\237?\332\002\320?\273r\277>\243\351\021\275>\001d\277\207w>\277\352\305\262\277Ej\265?\233\207T\277\020\332d\276t\246\207?\231\036\227>fN\216\277\300{\210?t\340\252>\313tN@\037\213\000\2776\275\320\2766[\357?u\327\200?\311\250\312\276\263;l?\02567\276\202\246\323\276\231\245\230?\356\370\212\276!\222C\277!\316\231\276zn\205?Z1\275?~\006\375\277Ig\003@Hw\345\275x\024\360\275\022\365\006\300\031<\240?R\026(?\256t\024\277\311&#\277\356\300\201\276\rQ\225\277\337I\221=i\025A\277\254\031m\276\020b\033?\n\205\344?\236\037\356>(f\002\277\276}\276?\267\226|\276;\021\301\275\202\3207\277\244\334\365\277eO\t?\343\307\242?s\007\244\277wb\346\276\334\034\035\275\362R#?qv\273?\031w\232?\364Z\227?\217X\271?}\251\245\277h\017c\277\273\324\360\276\\\316\365>\243\321k\276@\373$>\304\321\207\277+D\371\275B\255\225\277\003L\266\277\355\221\245?!\302\002?V\304\036?6\323\211\277\367\323e\277k\253:?&m\021\277\320\355V\2768\275\320\276\372\226B\277\007\360m\277\372\010\326?|\333\314\277\272\313e\2776zh\277;u\315?\357i\205\277R3+\277D\006\265?!A6\277Ojt?[\016&\277\332\261\177\275\255T\005?\220G{\277$K\233?:\016 \275)}\317\276\261\205\t\277%\202\317\276\240\337\030?\277\253<\276\205\331\211\277x~d?\333*\200?\307\327\312?!Xs?\357\3560\275V\347\363\275\324!\337\277\221\343\333?\350\265\207?\006\341i\277\210\022\207>\330\362\030=Z\246K\276\337l\241\277\335\010&>d\242\\?8\326I@\362q\024\300\334\036\024\300#\227\355\276Xr\036\277^\202\205\277\216\317\006@~\200q?\n\232N\277c\316{\277\004S\265?o\3761\277\311<\037\2763\003R?i\362\233\274F\020\307\276?F\201\277X\371\244\277ar\345?\035\t\"\276UZ\004\276\266\014\367\276\343\266X\277z\032\223\277\361\240\211?\027\025\205?^\"l?#Z\301\276q\334\213\277\r%\364\277b\326\266\277\267\224\201\276(QJ\276\031\206\002>\321H\312\276\252\347\234\276\275\366\023\277\'\244@?\004U\264?\260\200X\277\327\010\370<=\021\310?\005M4\277Ha\215\277\200\231\206>\n\014\270=\252\265\322?l\255=\277\306\370\254\277ulM?\325:\376\275\233P\212\275\205\022\321\277p\250\204?O\323\305\277uv\266?\225\334\234\277\335\202\231\277\242\003\275\277\30380\277g\260\200\277P,\265?\rQ\205?CR\252\277\300\261T\2777x\215<\310\244\230\277\001.\314?\333P\\>}0\316\277V@]\276\341\277v\274Y\230\222\277r}G?KO\214\277\2314=\277\312\013t=5&\\=O\254\315\276\260\231\\?\202)\020\277\351\347\215?\325\357\327\275s\032R\277\257bQ\277i\351%\275\276_\272?\253\305u\276N\271U?\351\'\237\275(\201v?\340\254K\277V\222\222\276o\354D\2770\002\301\276&\307\007\277\277h\001>zp\221>\214\372\213?_\223\323\276\'>\036=\027\251\257\277\023!\244?\251\2240\277\332\316\377>\304\2429?e\212\255?\374\356\r\277\rT\340?\224\273\337=\002\200\273?\326\014\337?\\\n\010\276\223\353\344\275\t\202\337?\255x\257?c{\265?Wga=4\036<=\004g\302?\367\242\213\277v-N\276\026\304\214\277>p\234\277\210(\333?\245Vq\276\205R!\277\243\267\322>C\211\332\277\340(\000@\353g\274\277\027\n\004\276v]n?q\364\243\276&\363)\276\326\201\262=\006\347\253\277\032\223x?\333L\216\277;Il?\375\n\325?\r[i?\2742\222?\3030\r\277\3114\213\277\206\247\233>\216\332\236?\021oL\277\266\270\206?\037\276\227\276\016\243)\300\002_\226\276\017\025|>y\314\232?|=\354?\362\200\307\276w\341\224\277#g\207\273\256x\356\276\317+\267?V\337\367\275\353\276K\275H\371\361<\226\220\352\276\355\026\264\277=Z\037\277\343p\326=4E\255?\263H\337?o\333\035\300\010\033\244\277\371\337\232?\370-c\277\032I\245?\350\200\331\275\313\025\243\276\352Q\266?\032d\254?\335\2073\276\037\240\030?\324\224\225?8]\220?\342\305\273?}\311)\277\330\270\315?M\371\311?6Hm\277\0268Z\2766\036\260\277\033\020\212\274\330w\276?\267\005\222\277B\222\221\2769\201\277?6/\225\277\307\366\213>^Y\030\276\234(\240\277\005\226\244?\033\001\211\277\312\r\253\277\344\324\300=sY\306?\230oM\277C6\351\277_\025\255?\317\003 \300\363\377\232\275\370\320H?>%\350\275\001\217$\300\344 \232\277\274\347\007\277\361,\266\277\243u\252\273\333q\315?\325M\357\276\267+\267\275Z\306\031>\324\001l?9S\004\300PU\006?\024\332\305\276$;\252\276z|\302=)\355\226\277\004r\030\277\032J\032\277\232\233\350>%\364\230?\32454\277\257C\364:\347\366\021\277\260fT?\317\250\315?\005\224~\277\307<\010\275\304\022\245\276/\236q?\343n;\276t\273\006\276%w\010?3\007\031>\215\013\212\277\357\010+?B\324h?\245\310\236?|@J?\375\3651\2770|\211\277,\021\273\275\343\215f\276!\212\252?\321\234\363\276\037\033;\277UK\364=\n\\\274\276\331\025G\277@\030\217>\212\033\231?R-3\274\376\036\013\277Q\214\023>\231\0325=\023\241L\277;2\325\276\371\340\207\276K\211K\277(\2766>\013\206/\277\217\r\020\277\301\330\307\275\3030\253\276\304\373\003\277w\354\204\276q\372D\276\003\262x\277\254\337m\276EI\272\276S\376y?`\034\245\275\210\363V\276\345k\212\276\001\235o>\271\232a\276\345\307H\277\271\355\t\2773M\351\276\244`\355\276\210&4\276C\263W>\003\263R>a\344\275\275HeS\276=\023F>\310\022\221\276S`\317>\2611\014\277\372\335\301\277=T\307\276w\244F\277\223\242\277\277\rFY=\344\210X\277\330\277a>p\335\264\275\334\002<?\3729\027\276k\202Y\275\224\2269\277G5\211\274\243\023\317?P/Q\277\006\350\246?\335Q\007?\374\026\366>\207{\225>\272\032\305?\264\275h\276\002%_\276\313\213+\277\254}\037\277&d\224\276\355\216\034>m\233O>\323\216\037\277\302n4?\005\344[?,@\244>\340L\225\275\267+\035\300\010\026\037\277\200\354I\277\203\377\260?\004%\300;\3639\334<:8H> \217\'\277\242\'0\277@\224\376\276\303@O>\270\331\020>\256\201\327?@%\363\276\331\261-\277\214\345\355\276\347\n\031>\342+\237=\265V\r\277H\2273?AQ\347\275W\032\375\275\n\345\007\277+\026\032\275\022\013\013@\324\214\"\277\300\216\022?\201\360\376\277\363a ?o\221U\276\337%\315\276\345_z\277\374\005o\274 \305_\276:oS\277y\366U=A\233\364?p\n\323?\t\020\306>m\241O=\263\361J\276\332\310\262\276\210\220\\\275\275\363\264?\205@\006\276qk\305=\221I\327>\233\230^?B}\202\276\2108\207\276%\364\366?YqU?\237\201\202\275\330\210h>\360\2318\274&\277\006\277g\215\346>\346\267\003?\341\203\241\275\327\300\003?\004\030\263\276_\027\244>\023ot?\261\016C\2769\253\237\276[\321\230\2752-\325?I\211(?\306\261I?B\355\210\277(\246\267\275:\277.\277\307C\334\275\265\033\205\276+\3367\2762|K>6V&\277\234T\264\276o\312.\273\327\351\235=\332w\243\276\270\037\374\275V\205\366>\252\274D\275WA\n\277./\026\277woT\275\20756\276\333)\253>\337\366W\276(\260\203\276\207\'\200>)\272}\277\034\3421\277Ni\300\277\2149\235\276\361\241\262\276\310\311M\277\320\302\230\276\2321Q\277\020\301O\275p1\252<\364s\266?\276\330\023?c\216=\277\0350\324\277\364\325\036\276\224(\226>\023R\251\276\226\257\231\276\342V\211>K\235T?\2765\014\277\321@>\276_\276\214\2741\215\377\276a\305\345>8\207\n\275\254\3308\276\024w\225\276\\\256\356\275\203\201\223=\202\272;\275\205u\004@-\355\241\276\350\034\353\275\345\262\033\276\211\356\307>\'\204\303>\362\372l\277\352\036\241=\324%\030\275\203\203\223>\037\007\203\277\372\2433\277%\2622>?2^>\342\030i\277m\0228\277\301\321\252\277+\242\377\275\305cT\277\241\271\316\275\345\334\r?\230\227v?3\004\252\276\007\200\247\277\237r\233\277\237V\243?\360\245w\277\337X\233\2779\223R?\331\010\250\276\001d:\277\230h\207\277\365\206\302\276\226\272\034<\236\320H\277\243\351\275\277\337\026\t?\264GG<\2247\264?$.\243\276\374\003G?\274\225X>[5\226>\321P\215\277\356I\305\275z+\005\276\345\270\254\2767\354)\276\024\233\313\275\177\0229\276iW\247\277\321\277\002\277\302-\272?\270\226W\277\024i/\276\026\347\237\276\032*0?\343\266*?\003w0>\t\310\177>\303W\355\276\225\324\323\276\351\222%\276\013\300\002\276rE\033\277\271\275\367>\227i\020>\224yv\276\211`\033>\242 2\276\226\200\274>\240\264\223\276\362\035\207\277\317\230\210=\246\334\222\276\021\037\323\275\303Fe?L\313\205\277\231\213}?\020\347\005>\374I\205\275Tq\250>_\224\207\277n\214\274\276\224\206\200>\304SC\276\245\366~?\375k@\276bs\236\273U\321\342\276I\320\237\276:\010\017@\302\024m\277Op\200?\353\311\245>NnE>\010\366\303?\265 \261\276\220$\215\2764\355\346\276\313\326\265>T]\327\276!\335->.-\274?\341\316\316>lF\241\276u\243\013?s\315\371\275\352\302\224>\353\030p?nJ\200?\310R!\277\007\244\344>\261;\000>r\373N?\301U#\275\350H,\276\200\320\354?`s\323?\'\264\257>Q\022B\276\372\243\022=\212e\236\276\002\224\311>\013\341\233\276\332\251\250\275\000<0\276\0135\261\276\200/\213\276\327]\230\276\001.\242?3\374\251?\357\373\217\276\223W\331\276\340\225<\277\002S\037?n\332\236\276]Ii>\243\2262\276\026gv>\\/\004\277\366\342\247>\2366%>\212\006m\277\333\371\266\275\214\242\224\275\2258\275\276\252\353y\276MV\237?\322\312\242?/\342\027>\2173\246>\200\364]\277|\036\261\277?\366\312\27637\243?\1774\264\276\260\303N?\215h*\277\210\250d?\03530>\226\353C\277Nh[\276\002\253^?>\t\267>\331\230\226=7\007\220>\242R\325\276\313\031\272=&?\022\276\355\325\205\276\340=\221\276\256\330\214\275\270\256\337=\215\013q?\205M<\275\250\340\204\276)-=\276\225\177\372\276y\237\016\275\023=\200?1\272\277>\0016\315\276\315[!\277\214\324|\276\222)\241=\350\207\030=P=d>\255\206\250?\260\215\363<\202n\255\275\317\245\224>\325ST?kE\037\277N\177\023\277(A\316\276\303<\000\277\300\221\220<~D\311?Td\265>g\005\243\275\013\035\243>\225\265\035?q\374\257\275;\233@\275\032W\000\274\231\257\341\275\271\363\002?\213\314\311\276\016\237L\276\243\312&\277`\370\r\277\0237\330\276\232\317\n\274\336\307\n>\006e\225\276r\\;?y\323\344\275V!\n\2769\3556\276_hm\276\0328\032=]m\201\276.y\230>J\205\006\277;\265\212\275\361?\222\276~\016\023>\240\320\207\276,\277M\276\304\341$\276H\262==\221\275\267>\272~\242>\206b\014>2t\023\277\247%\262>\374\306\223\276\254\353\273\276\302\377\006\277m\017\270>\014]\025\276/\026#\276\034\235\226\276\010\302\362\273\034\242U>z\235\002\277\010<\232\276\343m\014\277\203\213\r\276\257\231\202\276\251`\232=\314:\210>H\213\213=\236\277\000>h\010\274\276\373\210\376>\'G\243=\372\234\r\277(a\005\277V\3461\276y\377h?\225\222|?l\301\375>|\013\024>Qc\323=M,4>os3>\234y\027\277\022(\337<d\232\013?\337\246\214\275i\376o>\226\212\306\276\351\330,\276?\250;>=\t\303>\241\365V>\003\356\204;\274\232%>\276\224\266<\217\033A\276\032\205e>v\241\213=\271\235\010\275\2479\304>\221\0224\277\307/\005\277>\271\026?\024B\007>r\310\240\274=eF?\212g\326>\025\214\251\276{Y\254>\3529C?\242\371q\2768\303\245\276\223\307U\275\2745\340=\2522*<\214T\021\277KD\227\276u\302\311>\036\374\364\275\364;\314<\031\326\233>F\347\374\276$bS\273\260W=\276\230\177\224>\2011Y\276v>\241;+\201\220\276XJ\240>7vZ\277^\3357\276\317\323\205=\246\230\033>\326\031\217\276\021\3228?\275\261\025\276\326\320)=\321\252\022<4\3653>\300\013U\276=P\317>1z\307\276+x\302=\223o\353\276\035>K>`\031\255>\326\017C>?\316\314\276m\253\346>\253\325\330>\364\001\320\276\230Gq;\342\024,\276o\201H>\240\315\370=~\"\236\276\376\\\010\276i\026\352=\r\366\203?\325\262\254?\337K\265>\330\t\206>\262-\003?\250\3578?\370@4\276\016\273\241>C\372\032\276\237l\277>\222\270\321?`A\347>U\273*\276\027c\037>\001J<>h\014\337\276A>5\277u\365\217>8\215j\275!V\034\275m\"\347=8\227\263\275\337k\026??\265\376\275G\221\217<%\345\245?@5\214;\216d\237=<\2439\275U\034\350>#{\"\276o\337\232=\335\333\":\351\340G?\321ij>\233\372\347>\345\200\312\276?0\004>W[\037\275\354\005\347\276/1\335\275\024\025\202\276\351;\311>7\217\313=Z\373\335=\205\rw>L\013\253?\322\020\236\276s\007\220>\217\007\347\276I\275\207\274\267\256}?<7w<\324\212v\275I\246C?6\277\203?\336\333\246>\345\372\207\276\305\217`?\340\327q>\277>,\277c\307\212\275\265l\271>\254?d>K\010\373>u\014N\276\267&I>w\032\210>b\027\251<\264\343\201\276Y\333\264=\315qf?!\354\207>\233U\001=;=C>\246\252\n\276\025\327\010\277\253\256\035\277\336\220\315\275:QM\276\203U\346=k\210\265=\253D\250\276;\312\210>a^\277>H\377\350\275\241lH\276s\034\026\275\233\351i\274\274\202\334\276y\223^\275\303[7?\355\251l\276\036B\r>\306\247\007>\'\242\001\274l\022\241>\220\226/>\032:8>\376w\372=\322\320f\276\357Fk>;\357\321\276\330\345\237>\031\264/\276B\365\014\277G\0072\276M.\230=H\323\014>,\345\312>ny\210>,\313\240\276\342\375s>\301\354\216>\325\344\223\275o\274\354>}_#\277Jk\341\274\345\020\215\275\255\354^=\272x\235\276y\371\200>\305\353\246>\205\333\020\277S\254\254>\035l\211\276\036\\\256\276\247+7\275:\241\302\276t\213f<>\375\236>u\020\243\276\252\335E?`\335\226\275\340!\302=\374A\360<#dB\276\376\271\242\276\014\200\343=~k\030=E^\343>\215r\245>5\3151=\361\232\266\276ST\213\275\001\205\253\276\331=\227\276\223\317\205\276v_\023\276\330w\014\277#\332\245=\202\004\345\275\331x\004>\002\333\003;\234>\251\276,\301\006\277Nrv\276\353$\014>\003I~\276\256\036\\>\267k\331>!\237\005\2777\340\212\276\237d\332\276~\031\261\276\234\360\240>\000\211\314>kmj\276\260\325\315\275M\263g\276\332\261\212<\266r]\276\034OP\276\324\233D\277\234\345\364>\002\265}\276\231\037\217\276=\010\223>\3102\320\2764\335\370\276\241Q\222\276\276\177\275>\357\232\233=1Wr?\243}\316=\244[\310\276\t\030}\276\254\342\273\276cU\244\276%ou\277\346\000\344=3I\255<g3#>M\007\375>\237\276\250\275\004\023\215\2767\264\322\276\257\361n=S\nQ?7\005X\277e\322L\276\216\273N>\323\035$\277\026j\206>\316\333\024>~\205!\276\005\177\227\274W@=\276oX\222>\010\001>\2767(\230=\350\014{<\211(\375>\245\345c>\212\217\274>^n\000?\220Fj\275\312\337)\275yxI\277^k4\277\366\277\002\276\320!\001\277\241\306\032\277\033\262\347=>\212<\2777\225\325\276\177\330\010>\320\242\003@\302\357}>p\242\244>\\\214\033=B\257\311?\301\333\376?\361\022\336\276\025\261\344\276\314Nc\277U\027\277\276\006\207\261\276\200V\341>\253=}\276\310,\265=\357\2627\277\372X\221?\030\030\343\276\373\366\323\276\360\321R\276\247U\243\276\005\354j>\002\\\215>\200X\234\276Dl\035\277\242=\030\275\"a\311\276\224\t\214?2y\231<\377{\010\300\001\337\200>,U\002>\365:\215\276\256\255\001\277\022x\266\277\n\344<=\305\373\320\276k@\203\276\3630h>a\251\002\277\272\000p\276\375\237v>\304\236\001>FG0>\3238\354\276\017\3363\277\332\247\000\276\255\326\366\2760\030<\277\n\243\217\276\355\323\270?\372,\001>\332\356\202\275&\356\206\277\n\266Q?\336R\033\277\202fX\275\343\362M\277;Q\215\275_v0?se{\277\005\201\230\276n\311\325\276-\320\226\277\222k\026\276\263\275;\277-\001\307>#S\203\276\024\262\240>:\323\321>\007\271\327?\341}&?\270\320+\277=\030\226>oU\207\277\360\245\340\276\255\2665?\263\373U?i\004,\277\206\024\217?\357\243\205=\236\200.?\315y4\277\261\3000>\225\365\211?K.\030?\037\006P?\3273\325\274lz\321\276F\001\001\277\335\245\241?.=\024\275\213\'\355\271\204 \004\277\230\0300\277f%\014>H\000\273\276g\010\344=9dR\276\272)\363\276[\241\350>\355:\'\277g\370<\276o\007\232>\"P\277\276n\351\177\276W\333\371\276p\002\211\277\215\010\327?\324\252\025?j\225d?\021\326`\276w.\002\277\317\300\305>\024y6\274cvY>o~\331\276\355\242\250?\217\215\212\276g#\246?B\327|\277\304\273O\277\225\260\235>\353\276\345\276\262\026\250?6\237K\276_0\350\276W\"\241\277E\353\033?\241^v\276! \210\276\273\002\306>\272KV?\310\r\263\277I\261O?>!\345\276\323\310\317>\300\241|>\246\365s\275c\235\007\2768D8\277&\276u=o\277P\276\010\311\212\276\327\334\331\274\000\320\222?8\010%\277\355p\374<\357\274\360?\332\330\254?\023\215\206\277\276\215K\277\233]+\275\013\245g=\245\337f\275\277q\216\276\325\256\253\277$k\005\277z\305\365\276\352\230E\277a\323\265?qu\301?\330W\320?\034O\246?:\230\222\277[9\243?\375^1\277\313\025\002\277\312(\300>\325KE\276@\306\224\276\355N\244?\3366G\277\311\300\202?\353\005\232\276\337}@\277\\<\017\276\340\307\352\276\307\314\343>\nE\n\277\367\0253\276\302\317]\276[\366G>\372\033\252\274\372\333k\276q\213\t=\242\217\330\276\222\204\372?k\370%\277V\301\360>\310I\324=\263\202\251==3\230?\023l\220?%)\240\276\266\\\240?\232\335\217=\021\244\214\277\016T:\276\265\350\307\277B,\241?\260<\222?]\235\377>8\261\210?\377\370\337>r\322\231\277T\373\361?\'\231/\277O)\220>m{\343>\363V\257>F1\037?/\031\255\276\253\302\362>C\207\035\275\000\026s\276\340\300\230>\254/o?M\371\226\277\264\343\200>\207\270\270?\334\212\326\275 .\231\276>*Z=\026\270\216\277\022\302c\273N\247\215>\022C\374\276$\372_\277\357\025\005?\234\377\006\277\2612Y\275\257\263H\277\357\314\341\273\231`\317>\267\272\364\275\355\213\362\276\036\031\304\2754.\245>\313]\001\275/\261m>5\014\335\274\364\246\221?\265J\243\276\326\371\275=pV*\276\026c\242\277<\211D\276H\n\210\277e7\037@K]+\276\237\021\257=\\\200W\276//\346\276H\363\006?L\350B?\213\021\200?\264p\212>\220\234I\276\273_\377?@\030\211\277\023\033\036?\005\341.?d\0016\277WU\241?\234\030\273\276A\204\017?\371\272\270\276\344\210\234>*g5\276\027\263\226\275|\232->ie\014\277\301\n[\277\257\264\201\273\246Q\347>\370\264u>i}\003>\241\004z\277\345\026\240\275\316\233\231\276\360IX\276J[\364>\005\332\337\276\227\325\036\276\313!4\277p\250\241\2773!\004>\215F\336\276 \306\301\276o\222\232>\034\365N\277\005n\354>\323\302\325\276h\016\213\276\233\227\270\276R\223y\276TL4=\025\246 >^G6?p\330[>\026\370\373\276\217\273\205>\270)\362\277\255\314\241>RWP\275Vh\207\277i\3265\277\231\034\"\277\350\341\275>\365z\000?R\013.\277MQ;\277ap\321\274\022s\263;>\213\026\277y\362\026\274\272\251\032\277V3\253?\237\272U\276\210Ik\277\253\231G\277\013\340\262>\244\213\265?\372}\231?e\324\001\277\302\303]>\253\305\205\277\2101\317\276\'K\315\274?V\212\276a\345 \2756!\251\276:\2779\276U?\224>\360\005\n>\230\2618;0\301\201?\375\267\321\276\373\226\251\275\312z\002\277\020\355\014?Z\350\304?\234w\230\277\245G\311\276G\362\200\277>\036\352<\227&2\276[+\345\275\343;\334>f\301\030\276\236\315[\276\253%\317\276LB\242=\033\351\251\276<\006/?`\256\314>\375\311\031\277*\2058\277\021\0271\277\004L\231\276c\322\256>\236@\375> \230\212=t\365\037\276\013!\375\276\340\301\n>6%*\277\332\346\352=K\314\215\275T\303N\274\025]\003>\275\242\227=L\314\r\276m3\216>\367\261\236>z\263\000>LZ\277\276\030@\r\274\260\302)\276\230\267\273\276F\304\300>\356\002\221\276\207\332[\276\3551\017>]Xl>X\354\225>YpY=\003\317\241>2\344\225>\365\370M?\034-\272\2755\020\022>\270t\004\277\250{\272\276$\332\322<S)\210>\365SR\276<54\276\260e\205\276<\356\374>\360\300\006\276\204\027\224\276\304\002<\275\212\014\253\275\002\004`<\334\2235\277hG\354\2756\303\204>\334\365\356\276\333\2622?D9\336>Q\002\216>.=\223\276N\342\235=\312\270\216\276\035\220\257\275\025\014\031\276\343\333\214\276\367gg=&y\214\276\'2<\275\336\330\327\276r1\272>\257\273\255\276\304\025\021>\236\375#\276BA\225\276\366\017\332\275nbj\276ce\222\276\264\237\353\275\205\007S\277\277d\306\276\204\350\342>\245\013P\276n\277\200\276\252\333\321\276ok\253>qp3>%[\232><G\023\277\010A\207>I\224_>\323cd\274\016\304\331\276/\231\215?\302\370\213\276\337Oh\276\333\315t\277\213\035\317\276\375^\212<\372\031\022>\347+\315\276\201\236\342>\347\344(?\225\227\242=\371E\316>F\0378\276\356k \277\331\036\022\276\367\254\356<\375\216>>\315\035\207>:\371\035>\0057\314=<Z\000\277]\3019>\223\"\346> \254\'?_A!?\326P\331>Fn\362\274\2705\220\276<\303\324>\020\303\314\276Z\272\264<9\327H\276\353:\212\274\216\364\021\276\340\002\\\276\027*\370\274\2515\025\277?\315\004>l~\"?\255\361K>\177\227\377\276\212z\313>\370-i\275n0\252\276\240\357\340\276\360U\202\276\032\333\264>me\027>\231f\231\276\"{h>\244\202>=\355\204\370=\234\337\255>;!\022\276\341\241\213\276\267\025\251>\025\375\023?\020\302r\276\232\242\333\273\267C\005\277G\333\201?\277\025&\276\2456\241>\017\274\376>W\306\311>R\270\277\276\304H\\>\376}8\277\2166\275\276\306?\007>\273\2703?\367\247\246\276\367\2205?{F\200\276qi\005>\3076\217?\363*\215>\010@B\276\252\030\314\276_\037\024?\223\033x>\017\340\314\276\243\327\315\275&\220\270>\025\020\237\276\256\216\200>\247\300\354>\0146\362>\r\241\240<&\233\346\276#\2111\276\004g\311=v\264\212>D\206n\276p\225O\276;\327\265\276!\312\006\277\002\204\016\277L\203\265>\024\274\234><\256\316>1\240Q?\315c\205\275\314\333\246>\311\177\214=}\364\317\276\246\230\273=\357\200\257\2769\267I\276\035\337[>\234\003R\276\262\322\217\276+\035o\276\263\3310\276P==\276\370\333\200<.\215\324=\370\201\354\276\305\331\352\276\273+\310\275\302$q=}\035\327=\261\316>\276qlD\276\353/%>\300\244\030?\207NS\276K\323\250\276\021\256\001\276\361\332?\276\210G\265>Q\343\273>\341P\332\276\241\0224>N\ns\276]\304\254\276\031\000!>\277{\275\276]\367\314>h~\202>\030\035\232>\216\331\222?h^\267\274\336\035\321\276\016[\312>=\3205\276\374\005\006\275y\263`>\2175\201=O\222I?\303\206\323\2758\233\367\274\222\345\272\276\034\036&\276\177\231\025\276U\247y\276&\260\256<\231\222\205;\215\023\224>\020\232]\276\340\320j\2760\323\343>\006\332J\277u\331\233\276\320\221u>\0161S\276V.\306\276\"i\005\276\322\303\234\276\034\313?\277\023\372\346\276\036<\243>AV\237\276\361\307+?m\260\250>v\353\366;s_\005?Fk\363=\322Z\006\277\250\214\014\276\021\367\274>G\233\022\277\364\313\247\276#\033\302\276\\\034M\275l\036\345\276D\376\346\276\342-\027?^\237\020?\300=\031>\322\331<\2753\002\025\275\250\340\312>\002V\352=\267\034w>\024m\223=\376\332{\276?w\246>H[\326\276\336-\335\275\271\210d=\364zd\276z\254\025\276?C\273\275\235?=>\002\370\303=\211\326\316\276\201}\356\276\316\304H\271\371q*\276\250\323\241\275\344\010t\274\262h\307<\030\006\224\275\200\212\205?\362\314W=\001\357\206\276\337\n\341\273\266\220I\276\362\251\361\276\244\354\n?Q\010\215\2765\016#?\016\331\232\274\224\227\224\276|w\263\275q}\314\276\002\037\005?\355\223\301\2754\327\001;y\t=?\'\225\362=\204C\270>W\325\261\276y\027\233>(\220\233\276Y\350\345>\t\004\356>\216\203#=\356~\213>\210b\004>X\344\267\276-\231\266>\225d\253\276M\375\034\276\222\362u>\304\240\303\275\222\267\226\275\236d\034>\320y\215\276\362\2326>\332z\271\276\246\255\233\276r\255\370>B&\017?\032(0>\320:\020?4M\013\275\323\350V\277\326\206\201=9\273\343\276\025\240?=;\241\245>\3177v\276E\341&\276\245V\323\276\032\226\002>\037\203\334=p;m\276\252\034\266>%`\035\277\351\247\202>\251\005\236\276\276\224T>\036\016\330\276-\231\343=\231\257\237\276\245l\330?M\360\311\275\274\214\365<\236\367\000>\236\225\226\276N\2724=\247t\234\2760\313\002?K\032\007?\256\255\016>\374.==2%`\277\355Z\037\276\266r\253\275\3135\343>\377\331N=\034\030\251?\004_(>\211\314\\\275Gl\210=fr\t\277\363\017\277\276\267\023e>\225\010B>"
      }
    }
  }
}
node {
  name: "TestModel/depthwise_weights/read"
  op: "Identity"
  input: "TestModel/depthwise_weights"
  attr {
    key: "T"
    value {
      type: DT_FLOAT
    }
  }
  attr {
    key: "_class"
    value {
      list {
        s: "loc:@TestModel/depthwise_weights"
      }
    }
  }
  attr {
    key: "_output_shapes"
    value {
      list {
        shape {
          dim {
            size: 3
          }
          dim {
            size: 3
          }
          dim {
            size: 384
          }
          dim {
            size: 1
          }
        }
      }
    }
  }
}
node {
  name: "TestModel/depthwise/SpaceToBatchND/block_shape"
  op: "Const"
  attr {
    key: "_output_shapes"
    value {
      list {
        shape {
          dim {
            size: 2
          }
        }
      }
    }
  }
  attr {
    key: "dtype"
    value {
      type: DT_INT32
    }
  }
  attr {
    key: "value"
    value {
      tensor {
        dtype: DT_INT32
        tensor_shape {
          dim {
            size: 2
          }
        }
        tensor_content: "\002\000\000\000\002\000\000\000"
      }
    }
  }
}
node {
  name: "TestModel/depthwise/SpaceToBatchND/paddings"
  op: "Const"
  attr {
    key: "_output_shapes"
    value {
      list {
        shape {
          dim {
            size: 2
          }
          dim {
            size: 2
          }
        }
      }
    }
  }
  attr {
    key: "dtype"
    value {
      type: DT_INT32
    }
  }
  attr {
    key: "value"
    value {
      tensor {
        dtype: DT_INT32
        tensor_shape {
          dim {
            size: 2
          }
          dim {
            size: 2
          }
        }
        tensor_content: "\002\000\000\000\003\000\000\000\002\000\000\000\003\000\000\000"
      }
    }
  }
}
node {
  name: "TestModel/depthwise/SpaceToBatchND"
  op: "SpaceToBatchND"
  input: "input"
  input: "TestModel/depthwise/SpaceToBatchND/block_shape"
  input: "TestModel/depthwise/SpaceToBatchND/paddings"
  attr {
    key: "T"
    value {
      type: DT_FLOAT
    }
  }
  attr {
    key: "Tblock_shape"
    value {
      type: DT_INT32
    }
  }
  attr {
    key: "Tpaddings"
    value {
      type: DT_INT32
    }
  }
  attr {
    key: "_output_shapes"
    value {
      list {
        shape {
          dim {
            size: 4
          }
          dim {
            size: 67
          }
          dim {
            size: 131
          }
          dim {
            size: 384
          }
        }
      }
    }
  }
}
node {
  name: "TestModel/depthwise"
  op: "DepthwiseConv2dNative"
  input: "TestModel/depthwise/SpaceToBatchND"
  input: "TestModel/depthwise_weights/read"
  attr {
    key: "T"
    value {
      type: DT_FLOAT
    }
  }
  attr {
    key: "_output_shapes"
    value {
      list {
        shape {
          dim {
            size: 4
          }
          dim {
            size: 65
          }
          dim {
            size: 129
          }
          dim {
            size: 384
          }
        }
      }
    }
  }
  attr {
    key: "data_format"
    value {
      s: "NHWC"
    }
  }
  attr {
    key: "dilations"
    value {
      list {
        i: 1
        i: 1
        i: 1
        i: 1
      }
    }
  }
  attr {
    key: "explicit_paddings"
    value {
      list {
      }
    }
  }
  attr {
    key: "padding"
    value {
      s: "VALID"
    }
  }
  attr {
    key: "strides"
    value {
      list {
        i: 1
        i: 1
        i: 1
        i: 1
      }
    }
  }
}
node {
  name: "TestModel/depthwise/BatchToSpaceND/block_shape"
  op: "Const"
  attr {
    key: "_output_shapes"
    value {
      list {
        shape {
          dim {
            size: 2
          }
        }
      }
    }
  }
  attr {
    key: "dtype"
    value {
      type: DT_INT32
    }
  }
  attr {
    key: "value"
    value {
      tensor {
        dtype: DT_INT32
        tensor_shape {
          dim {
            size: 2
          }
        }
        tensor_content: "\002\000\000\000\002\000\000\000"
      }
    }
  }
}
node {
  name: "TestModel/depthwise/BatchToSpaceND/crops"
  op: "Const"
  attr {
    key: "_output_shapes"
    value {
      list {
        shape {
          dim {
            size: 2
          }
          dim {
            size: 2
          }
        }
      }
    }
  }
  attr {
    key: "dtype"
    value {
      type: DT_INT32
    }
  }
  attr {
    key: "value"
    value {
      tensor {
        dtype: DT_INT32
        tensor_shape {
          dim {
            size: 2
          }
          dim {
            size: 2
          }
        }
        tensor_content: "\000\000\000\000\001\000\000\000\000\000\000\000\001\000\000\000"
      }
    }
  }
}
node {
  name: "TestModel/depthwise/BatchToSpaceND"
  op: "BatchToSpaceND"
  input: "TestModel/depthwise"
  input: "TestModel/depthwise/BatchToSpaceND/block_shape"
  input: "TestModel/depthwise/BatchToSpaceND/crops"
  attr {
    key: "T"
    value {
      type: DT_FLOAT
    }
  }
  attr {
    key: "Tblock_shape"
    value {
      type: DT_INT32
    }
  }
  attr {
    key: "Tcrops"
    value {
      type: DT_INT32
    }
  }
  attr {
    key: "_output_shapes"
    value {
      list {
        shape {
          dim {
            size: 1
          }
          dim {
            size: 129
          }
          dim {
            size: 257
          }
          dim {
            size: 384
          }
        }
      }
    }
  }
}
library {
}
